#version: 0.2 - Trained by `huggingface/tokenizers`
e r
e n
i n
Ġ a
c h
Ġ t
Ġ d
e s
Ġ s
n d
o n
i t
h e
Ġ w
o r
i s
a t
r e
i e
a n
Ġ b
Ġ f
a l
Ġ m
Ġt he
a r
Ġ o
l e
in g
a s
Ġ u
Ġ in
Ġ S
Ġ p
Ġ c
o u
Ġ e
t e
i ch
Ġ h
Ġ g
Ġa nd
u n
r o
e l
s t
e d
Ġt o
i on
Ġ n
Ġo f
i l
Ġ A
i g
Ã ¼
u r
en t
i c
Ġ v
o m
e t
Ġ B
Ġu nd
u s
Ġ T
Ġ M
Ġ D
Ġt h
Ã ¤
Ġ I
r a
Ġ l
un g
â Ģ
i m
o l
t er
Ġ is
u t
i r
Ġ P
Ġe in
Ġb e
e m
Ġ F
Ġd er
Ġ W
Ġd ie
Ġ E
Ġ y
Ġ z
a m
er s
Ġ G
t en
i d
Ġ k
g e
Ġ H
Ġ C
Ġ K
h r
Ġy ou
Ġ re
i v
o t
c t
u f
Ġ R
Ġa l
Ġf or
o w
Ġ L
a d
Ġa n
at ion
c k
Ã ¶
e it
a b
Ġ on
u m
a nd
a ch
b er
l y
en d
a y
es s
Ġs t
es t
it h
i er
s ch
l ich
c e
u ch
o s
in d
Ã¼ r
Ġ V
Ġ N
u l
i es
Ġw ith
er e
Ġs e
a g
Ġ r
Ġ 1
v er
i f
Ġw h
Ġu n
Ġ 2
d er
Ġm it
t h
Ġ (
Ġth at
v e
Ġ im
Ġp ro
p p
ich t
Ġd en
as s
il l
Ġz u
Ġ U
Ġ âĢ
a k
in e
is ch
t s
o d
Ġ it
Ġ J
Ġn e
Ġv on
Ġ O
i k
Ġa s
âĢ Ļ
Ġa re
l l
Ġa uf
g en
Ġ er
Ġis t
o p
Ġf Ã¼r
ĠS t
is t
an n
or t
at e
Ġ j
Ġ or
d en
Ġw e
Ġc om
Ã Ł
u nd
k t
Ġ he
Ġg e
Ġd es
n e
ĠI n
al l
s e
Ġd e
q u
h t
el l
Ġd as
Ġv er
ar t
u st
Ġh a
Ġc on
Ġe x
Ġ Z
Ġa t
f f
n en
Ġs o
ĠS ch
i b
ro m
Ġyou r
l a
iv e
Ġ le
p e
Ġm e
ĠT he
Ġ ch
Ġs ch
u d
w e
i en
Ġw as
it y
m en
l d
Ġa b
Ġs ich
Ġw ir
an t
o k
ĠS ie
o g
Ġ2 0
i al
f or
Ġa us
o st
Ġal s
p er
m er
a h
b en
Ġb y
o ch
Ġal l
i z
m ent
s te
Ġth is
Ġf rom
ĠA n
Ġein e
i p
f t
id e
a us
te d
ie l
Ġd em
u re
u b
Ġs h
er n
Ġha ve
a in
ar d
ic k
om e
as t
Ġc an
Ġw ill
ung en
ol l
Ġ -
ĠR e
a u
ou r
d e
Ġn icht
Ġ es
Ġm an
Ġa uch
a hr
r u
an g
or e
ig en
Ġw or
a ge
h er
Ġl o
a p
er t
n t
Ġ i
ĠB e
d u
s p
Ã¼ ber
Ġun s
h en
Ġs p
e ar
ic e
Ġn ot
Ġd ies
Ġw er
r an
ig ht
Ġa m
it e
ou t
o nd
a re
z e
ig n
Ġo der
f er
a ck
r ou
e in
ar k
ĠT h
ĠV er
es ch
b e
i re
l o
Ġ20 1
ion s
u g
Ġp r
i le
ĠW e
Ġh as
Ġ en
Ġw ie
ung s
p t
Ġwer den
Ġcom p
ur ch
ĠP ro
Ġu s
Ã¶ n
ĠU n
Ġ Ã¼ber
ĠS p
Ġs ind
h l
ab le
Ġ 3
Ġa d
for m
Ġ ent
il d
i a
Ġt e
ĠD ie
ĠE r
er v
Ġp l
Ġbe i
al ly
c c
Ġu m
Ġd o
r y
' s
ĠâĢ ĵ
Ġo ur
ter n
on e
s en
isch en
a il
ou ld
ak e
T he
at ed
on g
Ġh at
Ġv or
Ã¤ t
Ġg o
u e
Ġu p
ig e
Ġr es
Ġo ut
h al
ou s
Ġh ab
en n
ĠA r
g h
is e
Ġn ach
Ġ "
n er
z en
ĠL e
ent s
ch en
a c
Ġthe ir
ct ion
e w
Ġb ut
o v
âĢ ľ
ation s
im e
Ġc l
f e
p r
ĠD e
in k
a v
b eit
p l
te l
Ġ ich
i an
Ġs ie
Ġwir d
ĠT e
r it
o b
Ġp er
on t
ier t
Ġh er
th er
Ġon e
Ġein en
te ll
h n
m e
ing s
Ġm y
re at
Ġ qu
Ġw ar
Ġm ore
os e
Ġa r
g er
as e
ĠE in
ul t
or d
it ion
us s
Ġwor k
re e
c l
Ġt ra
Ġ Y
ig h
an ce
en s
Ġz um
Ġein er
am e
r ie
r en
et z
âĢ Ŀ
0 0
a uf
Ġein em
Ġs u
ik e
Ġk Ã¶n
Ġa pp
r Ã¼
Ġcon t
ĠC h
Ġab out
Ġals o
ĠS e
Ġ 4
Ġse in
ow n
t o
Ġd ass
at er
ar y
Ã¤ n
o ok
Ġthe y
te t
ic al
Ġf ind
s s
isch e
ĠA l
sch a
an k
Ġwh ich
v el
Ġ ro
or s
Ġh is
es e
Ġz ur
Ġg et
Ġne w
u al
Ġun ter
el t
ĠG e
Ġd urch
is h
Ġ 5
k eit
h re
om m
Ġk ann
f Ã¼
Ġwh o
lich en
ra m
ier en
ĠâĢ ŀ
a ct
Ġf e
Ġof f
Ã¶ r
Ġb es
end en
Ġy ear
ch n
o c
ay s
w er
ch e
Ã¤ nd
Ġe v
Ġt ime
j e
p h
Ġ1 9
ĠA us
ĠâĢ ľ
ge b
ĠM it
Ġg en
Ġhab en
D ie
w o
ĠkÃ¶n nen
l and
ers ch
ĠH e
Ġs pe
ad e
Ġs ome
l ie
g es
ĠI t
ĠA b
Ġn ur
Ġan y
u te
g t
ch t
Ġp re
lich e
c ial
Ġs te
Ġk n
le d
ou nt
I n
Ġp art
at ur
st en
Ġd is
Ġn och
Ġ Ã
Ġbe en
Ã¤ r
Ã¼ n
end e
m p
ers on
an z
Ġb et
at ing
l ine
al e
ah l
Ġre c
m s
an s
Ġw ur
Ġb is
o ol
Ġo ver
t z
Ġin ter
el y
r ess
a z
am p
l es
Ġk e
ou nd
Ã¼ ck
er en
he it
r i
al s
g el
Ġne ed
Ġb est
Ġg ro
t ra
at en
g an
is s
Ġhe l
Ġo ther
on s
at z
Ġl ike
Ġa cc
Ġwh en
m it
Ġs a
b s
ol og
Ġpro v
Ġp e
ol le
ĠJ ahr
) .
Ġi hr
y ste
or y
Ġme hr
ut sch
Ġs erv
ĠA uf
ver y
r Ã¤
Ġbe c
f l
c es
Ġs c
Ġit s
Ġn o
al t
em ent
ir st
Ġin d
g lich
Ġal le
aus e
ol d
w n
ĠF or
ut z
u en
Ġ &
ĠD as
Ġim p
ĠTh is
Ġa ber
cl ud
f en
at t
Ġa g
a ut
Ġj ust
Ġh ow
T h
Ġj ed
Ġth ere
ĠUn ter
re ich
Â Ń
Ġwh at
k e
Ġ if
y s
o in
ie w
Ġthe m
form ation
f ter
scha ft
Ġ 6
l er
Ġpro du
or n
r ing
ne h
om p
) ,
a ce
Ġin to
am il
o od
ĠP l
ic es
b le
at es
Ġp h
ation al
ĠV or
ĠD er
i o
ib t
ur n
b ar
und en
e k
op le
Ġhel p
ie d
Ġlo ok
t ing
Ã¤ hr
Ġ ra
at h
Ġm ost
Ġw eit
f ul
t y
i ous
Ġin clud
ff e
Ġin s
Ġw ere
ĠS o
g r
an ge
Ġm ake
i ent
ct s
ass en
ÃŁ en
x t
m al
Ġh ad
ĠB er
l ic
Ġc o
e p
d ay
or k
om men
in ess
ĠI hr
c ed
f ahr
ag en
Ġb er
Ġf irst
Ġad d
Ġp os
if e
Ġdes ign
ot h
Ġw ould
Ġv iel
rou gh
e i
z eit
Ġth rough
er m
2 0
Ġst ud
rou nd
Ġpe ople
Ġex per
ic t
Ã¤ l
Ġu se
re d
Ġb u
Ġuns er
g et
iv ers
âĢ ¦
b st
Ġe very
g ram
ar beit
Ġw ell
k en
l in
Ġre g
Ġm ach
it ies
Ġkn ow
ĠO r
t w
Ġg es
Ġs oll
u p
Ġwur de
im m
ou gh
ĠB l
ig er
us iness
n is
u ro
Ġth an
et h
le ich
in n
Ġs he
Ġ Q
Ġm ay
Ġ 7
Ġs ow
Ġon ly
Ġs el
ĠW ir
id er
s h
l os
Ã¶ glich
a ir
ĠN e
h nen
Ġs uch
Ġb ack
ie le
is ter
ĠF ra
ĠM ar
te il
ĠF l
ĠE n
ic s
in s
Ġa ct
ĠG r
ul ar
Ġver y
Ġ1 0
if ic
Ġ 8
Ġcom m
Ġre p
Ġt r
Ġse hr
o ck
Ġ Â
ĠY ou
Ġman y
et s
Ġcon s
ĠZ eit
Ġsu pp
en ce
Ġg u
ow er
st and
ĠF re
Ġb el
b ur
Ġh ier
Ġd ar
Ġf l
o y
ĠS h
Ġs m
ÃŁ e
f ach
Ġas s
an y
id ent
k l
Ġd if
Ġd a
Ġund er
Ġh ome
Ġb l
etz t
st er
f ol
Ġt wo
at ive
Ġz w
ĠH er
ien ce
Ġin v
em ber
Ġyear s
yste m
el d
Ġth ese
ar n
ind er
ib le
r es
i x
Ġ20 0
Ġv ers
Ġwie der
Ġh igh
Ġw enn
vel op
ĠN ach
Ġ |
Ġh and
Ġl ie
ou n
as ed
at ch
en e
Ġf in
Ġlo c
ig keit
kt ion
s el
ess ion
Ġg reat
c om
ĠM e
Ġim mer
ig t
a w
ĠT ra
Ġc ar
o hn
ag es
Ġd own
Ġf re
ter s
' t
Ġd ann
ĠE s
Ġdies e
Ġp la
Ġp erson
Ã¤ ch
al k
u es
Ġo b
le t
il ity
el s
u er
i um
Ġd ire
Ġ 9
Ġre l
ment s
ste ll
sch en
it z
as h
Ġg ibt
ak ing
ra nd
c ess
neh men
u ÃŁ
Ġs et
re is
in ter
ĠG esch
Ġde c
a x
ĠE x
it t
ĠI hre
ĠI m
Ġpl ay
p en
Ġbec ause
Ġgo od
ĠA nd
Ġw ay
in en
Ġpro f
is ten
ĠM en
Ġa fter
Ġsch on
p ro
eit e
it Ã¤t
Ġb usiness
Ġv om
Ġs ol
Ġon line
Ġa c
Ġm us
it s
Ġwh ere
ar m
el le
w ard
hal ten
Ġ 0
ost en
fÃ¼ hr
Ġm ark
ar ten
k te
ak t
for e
iz e
ĠA ll
ra g
Ġi hre
Ġg er
c r
Ġe le
ul l
D er
el n
h ne
Ġg r
Ġbe g
Ġge w
it al
Ġsow ie
Ġre m
ĠG es
Ġre ad
c ted
c re
Ġin st
ur ing
Ġf ree
Ġse e
Ġn ow
o f
Ġm in
ĠA d
Ġm o
v en
ow s
Ġg ut
Ġ ide
ĠF e
Ġd ay
ou se
al th
W e
ĠU m
ier ung
iv er
i or
ĠD ies
Ġm ed
Ġev en
w ick
lo ad
ck en
Ġar t
Ġt ran
Ġa ut
Ġdies er
Ġde velop
Ġv is
am men
ĠN ew
ĠW h
m a
l ass
ĠAr beit
Ġ201 8
Ġd r
ad t
Ġte chn
it ed
te m
ĠO n
b l
c y
Ġwor ld
b ers
Ġp ol
Ġa v
ich er
c o
Ġb o
ĠE uro
o ff
Ġ .
i pp
Ġdif fer
Ġd am
Ġo wn
Ġf un
Ġm on
iv es
Ġg em
ĠA m
Ġb ie
at s
Ġw ant
uch t
we i
Ġst r
al ity
ĠS te
re i
r on
ĠÃ ľ
Ġ end
Ġth en
Ġc re
Ġw el
r ic
Ġsa id
Ġs ub
is sen
Ġd u
S t
D as
Ġs im
sch e
Ġ /
l ung
h and
us ammen
Ġc ould
Ġh ere
in ing
Ġein fach
Ġo pt
ĠDe utsch
Ġin formation
f all
Ġv ersch
ru ck
Th is
a ff
Ġk le
im mer
ust om
Ġl ong
ate g
ur es
Ġpr es
je ct
Ġs k
b o
iv en
Ġs ur
Ġ1 8
Ġf amil
b r
Ã¼ hr
Ġt ake
Ġb ed
ĠM us
id en
Ġre qu
Ġm ade
Ġwe ek
ĠD es
ĠB es
ĠL and
ut ion
le ase
v iew
ĠE nt
ĠM an
Ġse c
ĠI nd
Ġg ra
ot her
ĠI f
Ġb ook
Ġe tw
he d
Ġus ed
v ers
Ġl ife
ent r
ra ct
Ã¶ ch
Ã¤l t
ab ei
Ġe m
ĠP h
ĠPro du
i qu
od e
iv ing
p s
Ġm uch
ĠSp iel
o te
ri end
g l
Ġe ing
e h
Ġe as
Ġsh ould
ĠA ut
a um
ĠH and
m an
w end
u le
Ġprov id
in es
g est
on n
ran k
u ck
t on
in er
le x
iv id
og ra
a f
w are
et t
Ġp ar
ĠIn tern
d em
Ġc ur
Ġge gen
v ent
at her
ent ly
if t
Ġs om
der n
Ġein es
ro w
un ity
p art
g esch
ĠI hnen
ĠP r
w ay
Ġd on
20 1
h ip
Ġp ass
f ort
Ã¶ ff
ĠA s
Ġof fer
ĠLe ben
Ġs er
Ġr ight
Ġbe ing
Ġhab e
ell en
Ġw o
ĠW er
Ġch e
Ġbe im
tell t
ĠAr t
ent lich
p iel
Ġbe k
Ġd et
Ġm ir
Ġ1 5
Ġfind en
ist r
Ġn um
ater ial
Ġbe fore
ier te
Ã¤ hl
oll ow
n et
o tel
ak es
f ts
ach t
pp en
Ġv ar
s o
Ġg anz
Ġc ustom
at ure
Ġp ub
w ar
ĠM ed
m in
Ġto p
at or
eit s
u ally
ie den
am m
or ts
Ġle ad
in a
Ġe ach
l Ã¤
Ġwh ile
Ġor gan
Ġc are
bur g
Ġa round
Ġc ol
l ing
k s
re ch
icht ig
y m
as on
Ġdies em
in ce
y p
f le
Ġch ild
Ġst ar
Ġz e
eit en
Ġc le
Ġ1 2
Ġsel bst
ear ch
Ġg esch
Ġpro gram
ĠP ol
ro l
ot t
Ġweit er
Ġte am
Ġf il
at a
Ġex p
ĠU nd
Ġag ain
Ġin tern
Ġd el
tell en
g ab
an ts
Ã¼ s
Ġst and
iz ed
am en
Ġth ose
hal t
Ġav ail
Ġe mp
Ġch ar
ĠRe g
Ġc olle
Ġke ine
bs ite
ust r
Ġm ich
ag ement
ot s
ĠM in
ad en
ĠB et
end er
Ġl ast
d ition
n ah
et er
Ġo hne
Ġserv ice
Ġg el
in nen
Ġfor m
Ġdiffer ent
a ve
Ġb re
ten s
ess en
Ġh in
olog y
Ġth ink
Ġre al
z u
Ġpla ce
Ġsh ow
g ht
und e
Ġl ar
is m
ĠC hr
Ġs ite
z ie
Ġre t
ĠT r
s er
Ġper fe
n ess
A n
e ver
we ise
ĠU S
Ġdo es
am es
Ġf r
Ã¼ t
om en
Ġh im
le it
st Ã¤nd
ĠK on
Ġm al
ĠD aten
et ing
Ġs ing
ip t
im es
Ġd id
we en
Ġf ound
Ġ [
Ġs ign
ur s
Ġlo ve
v ed
g ung
al d
Ġg ar
ich te
Ġgen er
Ġm od
v ing
ro ss
w ert
ide o
Ġc ount
Ġtran s
Ġp ost
Ġexper ience
Ġ ,
1 0
Ġb oth
w ays
Ġz wei
Ġf ollow
ĠC l
Ġc our
Ġavail able
v or
Ġpro cess
Ġm ov
Ġuns ere
is ts
a i
pe ct
ir t
p le
Ġs l
f in
Ġbet ween
ĠK inder
b ild
Ġind ivid
Ġb r
ro om
od y
Ġad v
Ã¶ s
ĠTe il
Ġe igen
ĠSt ud
Ġre ally
oin t
Ġsch ool
Ġserv ices
Ġph ot
Ġen g
ĠB r
Ġm ain
Ġus ing
Ġf riend
v es
ass er
E R
Ġne ue
in al
Ġs ystem
ah n
sch l
Ġat t
ct or
ber g
Ġinclud ing
r icht
Ġl ang
ĠMen schen
Ġhe alth
Ġf ew
Ġb ring
ĠI ch
Ġsm all
Ġa kt
ire d
uch en
ĠUn ivers
Ġk ein
ĠP art
Ã¤ d
Ġimp ort
ĠA t
f r
in t
as ch
Ġp a
ĠJahr en
Ġprov ide
la ck
Ġfamil y
b au
Ġ3 0
a pp
ce pt
in o
b t
mer ic
Ġs it
ten d
ar ch
Ġr un
ĠB ut
Ġprof ession
du c
ar s
itt le
b ra
ĠUnter nehmen
Ġcomp le
Ġcomp any
l ess
Ġse ine
u ter
Ġb ra
isch er
ig ung
ĠV ers
Ġcl ass
Ġo pen
l s
Ġand eren
Ġro om
Ġle arn
is hed
i ÃŁ
Ġbu ild
Ġspe cial
Ã¤ s
Ġst art
o pp
Ġetw as
y n
re ad
ll en
ze ich
Ġv iele
ah re
h aus
Ġm em
Ġbes ond
ra d
ge ben
Ġse x
ĠB o
p ar
Ġr est
Ġw en
la ge
ĠM ark
z ial
Ġsupp ort
g em
Ġp at
ich ten
a j
Ġe ffe
and er
Ġm uss
Ã¼ tz
h ol
re ib
Ġversch ieden
ĠR o
Ġapp ro
Ġch o
ou th
rou p
Ġdis c
ĠG er
ĠÃľ ber
f ten
Ġsch n
Ġ ers
w ork
Ġc al
Ġdam it
if f
ĠIn ter
ĠGr und
Ġunser er
igh ts
Ġst ill
ĠR es
Ġsh ort
cr ipt
ĠS pe
ĠM on
Ġk omm
Ġs eit
Ġd uring
Ġmon th
il t
ier ten
ĠA pp
Ġein z
3 0
fol g
Ġv al
Ġb it
ie ld
Ġmach en
s atz
ĠC o
Ġg leich
Ġs ame
hal b
z immer
Ġw rit
st ag
ed er
Ġth ree
Ġd abei
Ġw ater
Ġbel ie
b all
Ġper form
ĠL ie
il der
c on
p a
Ġfe el
ard s
f ra
is ion
az u
a ur
ie t
ĠThe y
oll en
cc ess
Ġver b
Ġf ull
ent er
Ġ1 6
5 0
ĠH aus
Ġl assen
Ġare a
Ġv iew
ĠG en
Ġke ep
or th
mit tel
Ġpart ic
Ġpos s
ic ally
t re
Ã¶glich keit
ĠU hr
Ġ *
Ġ201 7
W ir
ĠE l
ĠP ar
Ġc ond
ag er
ĠG o
ĠSt adt
ĠP erson
ĠS u
on st
ĠChr ist
U n
ion al
Ġqu ality
Ġgo ing
Ġc ap
Ġc or
ra ft
ĠK l
. âĢĿ
Ġge ht
nd e
as ter
at Ã¼r
ĠF ahr
ĠS erv
er g
S ch
ĠDes ign
ct ions
Ġal ways
Ġb as
Ġpro ble
z w
Ġj e
Ġ $
un ter
Ġl ittle
Ġcom e
Ġer st
ann t
ill ion
Ġf ol
ĠD r
I t
g ed
re en
o ve
ĠN ov
ĠZ u
Ġzw ischen
in ation
ur z
Ġber eits
th ing
Ġlook ing
Ġe ar
Ã¼n st
g end
Ġhat te
Ġ1 4
ĠD u
iss ion
os s
Ġwur den
ĠI s
rie d
Ġ1 1
Ġnum ber
lie ÃŁ
i ents
Ġth ings
h m
Ġer sten
ĠF ar
all en
ail s
ĠF ot
Ġh al
ĠW elt
Ġb ig
Ġh ist
Ġvis it
Ġm Ã¶ch
Ġso nd
ct ive
Ġwith out
ĠG ew
un kt
ge w
Ġres p
auf en
ĠTh ere
h a
iqu e
Ġ1 00
Ġex c
Ġin t
ĠA meric
Ġis s
Ġ1 7
p f
y l
und es
b ed
ĠB ild
an c
Ġor der
ĠS he
ĠB ed
ĠG l
ch es
Ġacc ess
ĠDeutsch land
Ġpr iv
t il
ver n
Ġg ame
Ġf act
ĠQ u
ĠÃ ĸ
g s
Ġst or
ĠW ohn
en z
ud e
he im
b ook
j oy
Ġto day
1 9
Ġimport ant
Ġn un
Ġto o
Ġle tz
un k
Ġo per
ent ial
lo ck
ĠIn formation
ĠF Ã¼r
h Ã¶r
ĠF r
ĠS c
Ġspe c
Ġsond ern
ut en
Ġo pp
y le
is en
Ġp op
um mer
e le
ogra ph
uÃŁ er
Ġ X
Ã¤t z
Ġz usammen
um ent
Ġbes te
ff en
ze ug
Ġm Ã¼s
um e
Ġne uen
p ort
Ġe l
Ġhe ad
en k
ft ware
at ter
Ġl ot
Ġpro per
Ġre ce
I N
Ġb ro
Ġwith in
ĠJ ahre
lo y
Ġh ard
m ed
o or
ĠK ont
ĠC ar
f ind
Ã ©
ip s
ch er
ĠT ag
Ġcur r
eit er
Ġbe aut
am t
Ġcont in
Ġd ata
Ġm ust
Ġp ower
Ġqu est
o ot
ĠW och
Ġ #
ĠSch w
R e
ĠÂ »
our s
il y
fahr en
Ġd ating
l agen
au er
Ġall es
f re
ĠT o
Ġ â
Ġc ost
Ġg ive
Ġ '
Ġf ile
es en
Ġs ure
ĠC omp
Ã¶ l
am er
a pe
z ahl
Ġin c
Ġh o
Ġm Ã¶glich
I f
Ġres earch
Ġk osten
un e
Ġstud ents
ert ain
Ġpl an
eth ing
Ġl ight
Ġwe bsite
or en
Ġp ut
Ġle vel
ĠU r
ere ich
Ġdies es
t ain
la ub
and s
Ġle t
ie f
at ely
Ġh ouse
ĠF amil
am s
re t
Ġg l
ĠH ol
al y
Ġs ay
ro p
Ġf ac
is k
us h
al en
Ġan ge
Ġm en
Ġt ry
Ġbet ter
est s
Ġe qu
Ġden n
Ġh och
b es
Ġj etzt
sel f
Ġs ince
ĠF il
Ġan n
Ġe ff
ess er
Ġprodu cts
um p
Ġinv est
Ġbie tet
ir on
Ġgro w
t ag
Ġne xt
Ġall er
Ġab le
ere in
for der
id s
b y
Ġp ract
alt ung
h Ã¤lt
ĠâĢ ¦
ation en
Ġ :
lich er
Ġge f
it ions
ĠH ow
Ġapp lic
ĠE le
e ich
Ġw all
Ġwork ing
ond er
Ġp ain
Ġc all
Ġsein er
Ġde utsch
Ġl ink
g al
Ġev ent
un st
Ġd ays
Ġloc al
ĠK unden
Ġp ay
ĠG em
o hl
atur es
ĠOn line
Ġsec ond
Ã¤n g
Ġ est
Ġk onn
ie ty
Ġc r
Ġsom ething
Ġg est
Ġeas y
r at
g leich
1 2
one y
a un
Ġ5 0
ill s
Ġd och
ĠC on
o gen
Ġb en
ĠIn st
M it
ĠK le
Ġmark et
g ang
Ġand ere
Ġne ar
sch utz
Ġpub lic
Ġ201 6
pr ess
Ġa ir
je kt
are d
Ġ2 4
Ġschn ell
ien st
e c
l le
Ġb esch
ĠTe chn
it er
Ġact iv
I m
ĠH a
Ġin cre
ass e
ĠIntern et
ĠS on
ĠâĢ ĺ
ĠG ra
Ġm et
uf t
Ġ1 3
Ġt re
Ġc reat
an e
Ġp ict
or m
o ber
. "
is piel
ĠBe i
Ġwar en
u x
Ġl ist
Ġhe ute
pp e
ent al
Ġde p
Ġen joy
te gr
Ġm ar
b el
Ġf ast
if ied
t he
Ġadd ition
op e
w h
Ġe t
d ing
ult ur
ĠC he
Ġste ht
Ġ2 5
ĠC omm
atÃ¼r lich
al es
Ġt urn
Ġe ben
ĠW ith
A N
g ar
Ġneed s
h or
Ġco ver
n ing
n g
ĠSe x
if ul
ĠM od
uf f
Ġp ers
Ġan other
ĠDies e
Ġlar ge
f ang
cript ion
an st
Ġimp ro
Ġihr en
Ġf Ã¼hr
ur y
p or
ĠQ ual
ir d
E in
Ġse le
ĠFor m
Ġg ot
Ġf ood
f te
Ġchild ren
h Ã¶
Ġcomple te
Ġperfe ct
Ġm aking
Ã¤ h
le y
Ġw omen
Ġm ight
an gen
Ġpro te
Ã¤hr end
Ġb in
u he
Ġj ob
Ġbe h
re g
Ġs w
z ug
il le
eth od
a ÃŁ
P ro
ĠK ar
ĠB ar
rit t
Ġihr er
Ġo ld
ig ital
n ung
ĠS k
ein s
ĠI de
is on
Ġmus ic
Ġd azu
ĠB ereich
f Ã¼r
il s
oc us
Ġne ver
Ġdown load
Ġm ind
ut es
it Ã¤
er k
ĠH otel
Ġperson al
Y ou
Ġbu y
ĠmÃ¼s sen
b and
ĠM al
ĠSt ra
ĠSch ul
Ġh um
ic le
g lie
iv ed
ou ght
Ã¼ nd
as es
Ã¶ t
ck e
ĠSt and
Ġcons ider
Ġh ol
uch e
Ġche ck
k ommen
om b
ĠO ur
wer k
ab ility
ick en
Ġcon st
iz ation
Ġpro m
ĠP re
ĠP ark
ĠAn geb
reich en
Ġb ased
Ġdies en
1 8
Ġt yp
u gen
is ed
ĠK ind
Ġcon f
W h
Ġsp iel
Ã¤ re
ĠH ier
Ġunder stand
Ġ x
Ã¤ ÃŁ
Ġsu ccess
Ġd ra
Ġd rei
ne y
Ġal ong
au pt
m ann
ig es
Ġf est
ĠUnivers ity
Ġzur Ã¼ck
Ġre view
Ġcomm unity
Ġsu per
ĠF in
Ġpro ject
ĠW ie
ĠA uch
in ed
ĠE ine
ier e
ul ts
us e
or f
em s
Ġab s
Ġto get
I ch
Ġent sp
i ate
Ġkomm t
Ġtoget her
Ġbie ten
u ell
ĠM ot
, âĢĿ
E N
ĠâĢ Ķ
o ten
Ġv ideo
sch ied
ĠPro f
Ġjed er
is ing
gr und
Ġn et
Ġf ar
ĠS eite
u ge
ĠNov ember
ĠBer lin
on es
s y
ĠM Ã¶glichkeit
it chen
ch ts
Ġl aw
Ġm ult
it ive
D F
Ġp age
nis se
Ġinter est
kt ur
Ġas k
Ġprodu ct
âĢľ ,
ĠSch l
Ġsing le
Ġm ag
stell ung
Ġt reat
1 1
ĠM o
Ġde v
Ġl ess
ĠC ont
ĠD urch
sp ort
Ġse arch
ĠB est
Ġg roup
Ġein mal
Ġt er
Ġn ame
ent en
v iron
or g
Ġk omp
ĠW asser
ĠJ an
ĠP er
Ã¶ ÃŁ
Ġcour se
ug end
om mer
Ġor ig
Ġall en
ank s
Ġdevelop ment
" ,
ĠP reis
c le
Ġc ou
ĠA ss
b et
if y
e x
or gen
ĠSt re
Ġa way
Ġcre ate
Ġbel ow
ch te
op s
Ġ ess
Ġe duc
Ġcon ne
ĠS er
im al
Ġinclud e
ĠLeben s
ĠB undes
rie b
Ġf lo
Ġgro ÃŁ
ĠInformation en
Ġf our
ĠS m
Ġch ang
ust ry
om at
Ġcon c
ĠW ar
th ers
Ġd i
ĠPro z
Ġsoll te
ing en
lo b
Ġe d
ĠM y
Ġl ive
ĠM ann
ru ct
tem ber
k ten
Ġalle m
n ov
ir m
Ġsein en
rÃ¼ nd
Ġp ast
Ġof ten
ing er
B e
Ġoff ers
Ġ201 5
hl en
Ã¤n ger
ĠV ert
es ter
yste ms
Ġte ach
Ġuns eren
id es
ĠH och
ĠB uch
Ġ19 9
ĠW enn
Ġk ind
D ies
ob il
Ġst ate
z t
ut ions
ent ion
Ġm aterial
s ide
Ġb le
Ġf ocus
Ġw Ã¼r
Ġb ody
ĠA ug
Ġso cial
Ġse ver
wick lung
Ġwel che
ĠB ro
f ern
Ġer halten
Ġagain st
Ġbeaut iful
nah me
ord ing
Ġ Ð
ĠK Ã¼
ab ly
m m
ĠG ro
um en
ĠPro gram
Ġme in
la uf
ĠK n
ĠW or
part ment
st ra
imm t
Ġopp ort
Ġmem bers
d s
ĠF all
Ġjed och
ck t
Ġst at
Ġcle an
b ie
k le
it ing
Ġindivid ual
k auf
Ġger ne
ar ing
und er
ure d
Ġsich er
ĠS a
l i
Ġd ist
Ġst att
Ġcont rol
Ġha ving
or ing
Ġfe atures
ner g
ĠB au
ĠB Ã¼
ĠMus ik
Ġg ir
p os
S ie
ĠF ach
Ġall ow
Ġre le
Ġwh y
ain s
amp le
Ġwe b
iv ely
Ã¤ uf
ĠFra uen
Ġb ene
ol f
an te
ĠO b
iv al
A s
ob ile
Ġbec ome
an zen
k un
y pe
Ġk ommen
op h
ĠD on
icher heit
Ġv oll
Ġch ange
r ich
Ġj a
ĠT ran
E s
Ġ Ã¼
he ther
um s
Ġm oney
Ġp ack
Ġdel iver
Ġer w
Ġfollow ing
aj or
oc i
Ġc ity
Ġc ase
Ġste hen
Ġr ange
ĠSp ort
scha ften
Ġcont act
ĠIhr er
om an
H e
Ġen s
kl Ã¤r
ĠW ind
Ġf av
ĠO ff
E S
ĠS el
it es
Ġun til
ĠF ran
Ġw r
Ġf ra
ĠVer b
re am
as st
Ġposs ible
fall s
ĠSe p
Ġemp loy
A R
er y
sp iel
Ġs ide
ess e
Ġl ine
Ġn ight
Ġsever al
ĠP at
tra g
Ġan s
Ġdire kt
ĠC an
ĠÃ Ħ
viron ment
1 5
Ġn atur
Ġt est
Ġpres ent
us ch
Ġm il
ĠIhr en
Ġintern ational
Ġt alk
et en
Ġver l
ke hr
ach en
Ġm akes
le gen
og le
red it
Ġb rand
Ġlie gt
O N
Ġse hen
al ten
ĠN atur
ĠK e
Ġt imes
h ab
we g
Ġme et
ĠM ay
Ġcom es
c ent
il fe
Ġs ize
ab l
ĠN ot
. ,
ĠP a
Ġm ot
ĠN o
Ġind ustry
Ġunser em
ĠZ usammen
ber eich
ĠR Ã¼ck
Ġac ross
Ġcount ry
ĠW hen
sy ch
con om
' re
Ġmach t
Ġqu ick
Ġo cc
Ã¶r per
Ġp ot
Ġspec ific
Ã¼ ss
Ġ201 4
t t
an ze
Ġe ver
id ay
Ġdire ct
Ġp lease
Ġmo dern
Ġide as
Ġver w
Ġn on
m ar
op f
s k
Ġb zw
g ing
Ġha pp
Ġbes ten
lich keit
je cts
gab en
un ic
scha fts
Ġw ollen
Ġt em
pl ay
ĠG u
Ġviel en
ĠEn g
ru ppe
in ner
v ious
Ġele ct
Ġw ind
Ġ ident
ĠTe am
ol ution
ĠS al
our ce
ĠTh ese
Ġwork s
u elle
Ġc ent
d f
Ġprofession al
ĠPro ble
ur t
Ġr und
Ġpol it
ur ity
Ġex tra
Ġaus ge
w ahl
ĠGesch Ã¤
gan gen
Ġgo vern
ah men
Ã¤nd er
Ġbene f
Ġ4 0
Ġt ru
Ġge ben
ges tellt
ĠSep tember
Ġex pl
o ver
F or
Ġst ory
Ġn atÃ¼rlich
Ġse ason
ze pt
Ġar beit
un ktion
Ġto ol
ch ten
en nen
sche id
be i
Ġme ans
m at
ĠGe b
Ġl ow
Ġgen au
m b
Ġl and
ib r
Ġtra dition
ic ro
Ġcomp an
Ġstud y
ra y
l t
ĠP DF
ab or
end s
ion en
Ġbesond ers
Ġcom b
Ġde fin
ĠB as
Ġth ough
Ġsh are
A T
et te
Ġprovid es
Ĥ ¬
c ing
ĠA pr
ĠCh ar
st Ã¼tz
Ġsp ace
Ġpr ice
Ġc a
Ġk l
Ġs ag
ward s
ĠSch ool
ĠE nerg
Ġn ut
Ġin sp
or ies
b ack
Ġser ies
Ġinst all
ĠO ber
Ġletz ten
fer ence
at is
ĠE d
ĠE nde
u ation
Ġrequ ire
ĠA ber
Ġd ort
Ġm ajor
Ġbl og
f eld
e ind
Ġb ar
ĠB re
A S
ĠK unst
Ġme ine
Ġke y
p unkt
Ġget ting
v oll
Ġfriend s
neh mer
Ġin tegr
end ing
ik el
ut ter
ul ation
Ġan t
ro ll
Ġle ft
Ġkn own
ĠN ational
gab e
rie ben
Ġw alk
ĠServ ice
o h
Ġent wick
Ġw ichtig
j Ã¤hr
Ġm om
Ã¶ff entlich
sch lieÃŁ
Ġcal led
Ġre pr
Ġth ing
ak en
w ort
Ġf it
our n
Ġ2 1
d ings
ĠC ity
u h
bild ung
V er
Ġand er
ub e
ĠD is
Ġim age
read y
Ġc amp
6 0
Ġchar ac
Ġoff ic
ĠN utz
ĠB ilder
g th
A m
Ġwir k
Ġgro ÃŁe
" .
Ġein ige
ĠJ ugend
Ġtechn ology
Ġi hn
Ġweit ere
ĠThe ma
Ġar r
Ġrec ord
u z
h men
Ġet c
Ġdesign ed
ell ing
ur ance
Ġgr Ã¶ÃŁ
k er
Ġgem eins
Ġun ique
Ġb lack
st off
Ġp oint
ĠWe g
Ġers te
re cht
ide os
it te
ab y
' ve
Ġgro ÃŁen
ĠS outh
ag s
Ġf und
g o
ut ure
ĠA kt
. )
Ġo thers
Ġl im
ad em
Ġt ro
es ted
ĠPl atz
Ã¶r der
isch es
ber t
Ġl iving
ian s
ub l
O R
E r
âĢ Ķ
ĠH ome
Ġto t
ck s
ĠF est
ach sen
Ġst ra
Ġproble m
ĠM ich
ĠD ar
au en
uf act
Ġrel ations
ab el
Ġsch w
Ġstar ted
Ġp ie
ĠD o
Ġre du
ĠM ag
Ġwe il
r ies
Ġd one
' m
m et
ro du
ĠR ed
olog ie
Ġf ur
I S
Ġw atch
Ġcl os
an ces
ik er
it ter
ĠSt r
ĠB ra
Ġn ie
is te
Ġj oin
od en
ac y
o x
Ġ ir
ur en
ĠC ol
ĠMit arbeit
Ġda fÃ¼r
Ġtra vel
Ġte il
Ġs ug
ver t
ĠLe ist
Ġtra ining
Ġn Ã¤ch
Ġdisc uss
il ities
ĠEr fahr
u ellen
Ġsch Ã¶n
Ġdes cription
s on
Ġin form
Ġinv ol
ĠAmeric an
ĠArbeit s
Ġp ort
al le
os p
ĠWoch en
it ure
O n
Ġal ready
Ġstr ateg
ou ch
S o
Ġen vironment
ĠO ne
Ġkonn te
er ing
Ġk itchen
m ark
Ġde al
ĠV ol
res h
Ġge b
Ġan al
Ġ2 2
Ġp ur
Ġl ik
Ġvar ious
ĠProdu kt
r ib
in c
Ġf ield
Ġd ir
Ġeigen en
ĠApr il
z er
los sen
Ġv ol
Ġ201 3
or mal
Ġcustom ers
tel le
E D
schl uss
Ġcl ick
ĠN orth
hr en
z ogen
ĠB el
ult ure
Ġbuild ing
ĠZ iel
if en
Ġret urn
Ġof t
ĠAug ust
ers tell
Ġph ys
Ġsim ple
ĠD a
Ġch allen
ĠM et
kun ft
Ġp urch
C H
Ġjed en
Ġs en
Ġm ethod
as ino
ĠC ount
ic y
Ġh ours
em ents
Ġpartic ular
Ġman agement
Ġe y
ĠF rank
ĠH ar
Ġcompan ies
Ġc ertain
ir k
we is
Ġfind et
reib en
Ġsein em
Ġk urz
ĠTh at
Ġbe iden
ĠP ort
ĠFra u
Ã¤s st
y r
ĠA ir
ch ite
our ces
or ed
Ġpers Ã¶n
Ġst yle
Ġk on
L e
led ge
o le
Ġw Ã¤hrend
Ġst ay
an a
S h
ast ic
Ġl at
A l
ĠMit glie
Ġwh ite
Ð ¾
1 4
ĠS eiten
Ġz ahl
ach e
w and
st adt
le f
Ġen ough
p ly
urn iture
ĠJ ohn
ĠR ahmen
lob al
ĠOr t
etz ung
entr al
ĠK osten
Ġeng ine
es ten
Ġoff ice
I T
n ers
Ġc ut
Ġen erg
an cial
us Ã¤tz
ĠP e
Ġpop ular
co ver
ĠSch n
ĠGen er
Ã¼ d
es ent
Ġw ood
ll t
Ġrep ort
Ġstr ong
N ach
ĠVer fÃ¼
Ġp df
Ġme an
Ġver fÃ¼
Ġadd ress
la u
on y
Ġ ersch
Ġfr ont
ĠD i
pl atz
ĠS w
Ġa ff
Ġg ute
Ġup d
st Ã¼ck
ra ch
Ġear ly
ah er
ĠY ork
ĠB esch
el f
ile d
Ġden en
Ġunter schied
ĠR ad
c ome
Ġexper ien
Ġkosten los
Ġen c
Ġl Ã¤sst
Ġpub l
la im
Ġ19 8
Ġacc ount
m ost
as k
Ġer folg
as ing
ĠEuro pe
Ġm ass
Ġcomp uter
ĠT V
1 7
inn ing
ĠG od
Ġabs ol
Ġnet work
Ġresp ons
Ġst ark
Ã¤hl en
ĠS an
ap s
ĠC al
i od
Th ere
Ġres ults
lich t
pe cial
Ġyou ng
le g
ĠkÃ¶n n
ĠE m
ĠEn gl
Ġu r
le ment
Ġres ult
' ll
sch n
y d
ĠB en
Ġperform ance
z iel
2 5
Ġf uture
Ġpriv ate
e ign
ĠW as
Ġh old
Ġcle ar
cr ib
Ġt able
Ġon ce
own load
ru ction
Ġevery thing
Ġmed ia
ĠPl an
ĠWe b
ĠW ill
ĠGo ogle
ad a
ck er
Ġhist ory
Ġh om
um m
Ġw a
ell schaft
Ġh ig
ĠW est
Ġg ames
Ġcurr ent
ĠEin satz
ĠAl s
f ic
ĠBe g
. .
1 6
ra um
Ġmin utes
u k
W hen
Ã¤n ge
Ġaut hor
O ur
Ġmonth s
ĠVer anst
Ġs ound
Ġkle ine
ĠS icherheit
ĠFra gen
la ce
le ist
Ġl og
omm end
reich e
ĠV iel
ĠUn ited
Ġth ought
ĠH am
ies en
Ġc m
âĢ¦ ]
ra kt
zie h
ĠF ir
ein en
ĠC olle
ĠM ore
W enn
B ei
or ge
Ġam ong
Ġ201 2
ĠS am
Ġhum an
Ġe uch
Ġcomm on
ĠMit tel
ĠWh at
ĠS ol
rÃ¼ h
ru g
Ġqu al
m Ã¤ÃŁ
stell en
ĠF ol
ace book
Ġwirk lich
Ġje we
ĠWor ld
Ġare as
ing e
ĠBe ispiel
Ã¤ m
Ã¤ ter
ĠJan u
ĠmÃ¶ch te
T e
ĠSch we
r or
Ġact ually
Ġger ade
A uf
sp r
Ġapp ear
ĠK omm
Ġc ame
F Ã¼r
Ġdo ing
Ġbre ak
Ġcont ent
h in
an ten
Ġiss ues
Ġverschieden en
Ġm id
Ġ Ã¤
Ġbe find
le ben
ĠP ost
Ġre d
O S
Ġb ath
Ġcom fort
ap an
s ere
ĠDe c
Ġkle inen
Ġinter ess
Ġin nov
ustr al
Ġf all
fÃ¼hr t
Ġw onder
Ġrelations hip
ĠK ir
r ift
ĠE U
Ġl ange
ĠH igh
ach ten
w elt
Ġin ner
Ġs n
Ġa ud
Ġm atch
Ġp ick
ĠG eld
Ġw issen
Ġinclud es
Ġloc ated
ĠT re
ĠJ u
id ed
it i
Ġquest ions
Ġfil m
Ġd igital
Ġnew s
Ġt w
f ass
Ġex am
Ġne u
Ġe conom
Ġto ok
A L
Ġv ier
ful ly
fÃ¼hr ung
Ġy et
Ġr en
Ġeing e
Ġwo hl
r if
it ch
ĠSch Ã¼
Ġge hen
ch sel
uf en
Ġproper ty
Ġse i
uch er
ish ing
ar te
et zen
Ġ2 3
ĠD ire
air s
Ã¼t zen
âĢ ŀ
Ġdo c
ĠFe b
Ġw on
Â »
le b
Ġnicht s
Ġc ard
Ġat tra
Ġt ype
Ġbe w
ĠK om
Ġ6 0
Ġag o
Ġpro b
lich es
Ġso ftware
is es
Ġappro ach
4 0
Ġs ays
C h
2 00
ĠG ar
at te
bl ick
le icht
Ġfol g
Ġa uÃŁer
b ach
ĠJ une
Ġopt im
ĠmÃ¶ch ten
ĠD enn
Ġnatur al
or ted
og n
Ġcol or
Ġdar auf
ĠM aterial
ĠK omp
ĠR est
al ter
im ate
Ġpr ess
Ġst aff
Ð µ
Ġpa per
aff en
ag ing
Ġman ufact
ĠVerfÃ¼ gung
Ġd av
Ġev ents
A r
Ġam az
ch ie
Ð °
Ġso gar
f ar
Ġk aufen
Ġpos ted
ĠPro jekt
r Ã¤n
igkeit en
er ien
un ities
ĠD em
am ent
ap t
d oor
1 3
Ġex tre
Ã¤ che
ĠB ad
ĠF uÃŁ
Ã¤t ze
f il
ĠB ay
ster reich
icht ige
Ġfav or
Ġe ig
ĠGeschÃ¤ fts
re chen
g ra
Ġte xt
Ġt ell
Ġle ast
Ġihre m
Ġs ystems
ib ility
Ġb ad
Ġt aking
os en
Ġi hm
ein t
ĠSt a
A d
am a
Ġc ra
ĠR aum
Ġwen ig
k on
g lichen
Ġrec ommend
Ġmo der
m Ã¶
b uch
ĠS il
N e
st r
op er
Ġcolle ction
pecial ly
ffe e
ĠA f
Ġcho ose
ip ment
Ġcomp et
c er
Ġass ist
le gt
ann ing
ĠH aupt
Ġre f
Ġm ess
Ġem ail
P h
Ã¤ us
war z
ĠG arten
Ġf ive
ĠSel bst
Ġd ue
Ġwrit ing
ĠHow ever
Ġt un
Ġenerg y
Ġhe art
ĠW ork
Ġa ge
f a
und heit
Ġ[ âĢ¦]
Ġre ason
ell er
Ġval ue
ĠB ank
ele br
Ġcl ients
Ġsome one
ĠT er
ĠP rÃ¤
Ġre ach
Ġad min
Ġpartic ip
ĠH Ã¶
Ġne ben
ĠKont akt
ĠW issen
ĠP res
Ġse en
at ten
nah men
ir es
Ġlat est
Ġh ope
Ġcom mit
Ġh inter
Ġdid n
Ġher aus
ab les
ĠM Ã¼n
at ors
ch s
ĠRe gel
Ġgovern ment
2 4
ĠAut o
ru ppen
ĠL ink
Ġab ove
ak er
ib en
it or
Ġh otel
ĠIn s
Ġd ich
Â ®
um b
ru ktur
Ġf a
ĠOr gan
ĠJ ul
Ġread ing
Ġhist or
g ress
Ġm iss
il ar
ĠD en
fle ge
ĠM il
ĠS ystem
d ruck
im ent
ĠT em
Ġc ook
Ġetw a
Ġdet ails
o o
Ġfe ature
ĠB eit
Ġcre ated
Ġg iven
Ġdoes n
Ġle d
ĠC or
ĠD och
ĠT op
i ber
Ġwho le
ist ic
it en
ik a
Ġcl ose
Ġknow ledge
em in
Ġw ide
e e
ĠProz ent
Ġorig inal
Ġge hÃ¶r
Ġmod el
us ive
om in
Ġp ark
Ġm illion
ĠFl ug
Ġapplic ation
Ġsel f
ar en
f est
ĠHol z
Ġann oun
ĠO ut
Ġd ate
ĠBl ick
Ġw ent
ĠO pt
ĠK r
ub lic
Ã¶ ne
ĠC enter
Ġ2 8
Ġle icht
la f
av ing
ĠNew s
ĠE v
201 8
ra gen
Ġs ong
ĠGe gen
p Ã¤
et y
z entr
le tz
Ġs il
Ġr ichtig
ĠSt ate
Ġs tellen
ber eit
Ġm ax
mb H
Ġopt ions
ĠA fter
Ġfun ction
a el
Ġa chie
ag ed
an ted
Ġle g
ĠT our
Ġha ir
Ġex ample
re w
Ġze igt
ant wort
Ġha ppen
ith er
, "
ĠInst it
at iv
Ġeduc ation
Ã¤nd e
ste in
b ung
ĠM ont
âĢ ĵ
Ã¤hl t
Ġgem acht
Ġevery one
l ag
Ġ +
Ġf ul
Ġthrough out
Ġvar iety
et ter
ĠProdu kte
ĠAn t
ar f
ĠIhre m
ĠAl le
Ġbek annt
ateg or
an ced
ĠG et
f o
Ġv eh
ich tet
id ence
ĠMar kt
Ġide a
Ġme as
Ġens ure
v est
ĠC om
Ġv ia
j ahr
Ġl ater
U S
ĠW eiter
wo od
ou d
Ġf oot
h ing
Ġper iod
Ġaut omat
Ġsim ply
u ed
ip le
ĠBer uf
is ation
ĠZ ug
ĠD abei
e y
Ã¤ ft
ĠB lack
ĠMin uten
Ġne hmen
ĠSu per
Ġc oun
Ġ201 1
ã ģ
Ġst re
ĠW inter
ĠAngeb ot
Ġt our
heit en
ann ten
ĠO ct
ik en
ra x
ĠB usiness
Ġb esser
th ough
Ġf ace
ĠM a
h of
te chn
ĠS ommer
Ġf urniture
m as
Ġg ab
ĠL a
ĠY our
or ten
Ã¼r ger
Ġra d
ĠMitarbeit er
ĠV on
Ġbeg in
d le
Ġph one
Ġder en
ĠRe ise
âĢľ .
ond on
ĠIntern ational
ĠFil m
Ġproble ms
uch s
ĠFeb ru
ĠT it
Ġent ire
if iz
ĠZ w
ĠJ e
le i
ĠGro ÃŁ
Ã¤ ren
ar i
te ile
ĠT est
A ll
Ġs ens
Ġp oin
Ġim ages
ct ing
ism us
Ġin de
Ġqu ite
b or
Ã¤s ent
z el
Ġentsp rech
k n
Ġ2 7
gen cy
ĠJ un
ĠG mbH
sch ule
Ġw hether
Ġd ou
ĠRe chts
Ġh ot
Ġrequ ired
Ġw ays
Ġz ie
ĠJ ust
Ġfin ancial
is iert
m als
A C
ĠL Ã¶s
E L
Ġbelie ve
Ġ19 7
Ġsk ills
Ġt it
ĠG erm
g re
o on
ĠS l
iz es
pa per
ur g
ĠEx per
ein ander
ific ation
ĠPh il
g n
t es
ĠWe bs
icht igen
ail y
Ġcurr ently
Ġmark eting
ĠF ree
Ġopport unity
Ġbo x
Ġpos ition
ĠD ownload
o es
ĠK at
b are
ĠB ook
Ġread y
Ġprovid ed
Ġpart y
Ġhal f
os ition
Ġg ilt
ie g
rÃ¤ ge
Ġdec or
ĠwÃ¼r de
ch an
ĠF acebook
Ġp orn
ag n
Ġm obile
ĠJahr es
Ġide al
Ġh ost
Ġanal ys
amer a
Ġbed e
Ġes pecially
Ġkann st
icht s
ĠPr iv
ĠArt ikel
ĠZ e
Ġoff en
Ġp le
Ġme isten
A M
Ġ2 6
Ġz usÃ¤tz
Ġt ax
bar en
Ġc ir
Ġdav on
iz ing
ĠH el
Ġcustom er
Ġpict ure
ĠR uss
Ġs ale
ress e
Ġcomm unic
ĠWir t
icher ung
ĠGesch ichte
Ġpa ar
ĠA k
ourn al
ĠA ustral
Ġc rit
aur ant
Ġactiv ities
ic a
I C
he l
ĠD av
Ġins urance
Ġal most
ĠS en
ĠK Ã¶rper
Ġ ill
Ġt akes
Ġc elebr
er nen
Ġpl ans
h am
Ġro ad
Ġeffe ct
b um
ell ent
Ġfur ther
Ġcharac ter
l ungs
ĠV al
ĠD et
Ġtra ck
Ġlearn ing
Ġd est
ĠEr geb
Ġt aken
ĠP lease
ĠN etz
ĠAus wahl
ut lich
Ġwe iÃŁ
Ġ201 0
Ġsec urity
Ġins ide
Ġn ormal
Ġd og
Ġc ool
ĠT age
ĠZ ahl
ĠSchÃ¼ ler
ĠEnt wicklung
Ġsh ows
ĠD ann
Ġst ore
l ang
Ġhe ld
Ġf ire
ĠU p
Ġpict ures
ĠWer k
pp er
ash ion
leit ung
ĠG Ã¤
R E
bed ing
ĠQual itÃ¤t
Ġd istr
f ace
Ġent er
Ġm ember
ĠS ing
Ġpot ential
hen s
he ad
ick s
Ġto wn
ab in
Ġe ither
Ġh Ã¶
ĠCount y
Ġrec ent
he t
id ge
ĠK a
Ġtreat ment
t ime
Ġpract ice
Ġsoll ten
sp l
ind en
E ine
Ġt erm
Ã¤nd ern
Ġdif fic
Ġn ational
Ġoffic ial
ĠWe bsite
Ġbook s
Ġre cht
ĠL ondon
h ib
st att
Ð ¸
Ġ Ã¶ff
Ġdiffic ult
Ġquest ion
ĠD am
ĠP al
ĠP orn
Ġconc ern
ĠUS A
ung e
Ġadd ed
ik ation
Ġpro jects
os ed
Ġsk in
Ġs we
opp ing
ĠRe p
ig ten
S p
Ġsit es
Ġs le
Ã¤ch st
Ġr ate
h o
Ġp an
ĠPerson en
Ġvers ion
Ġme iner
Ġverschieden e
bo ard
Ġyour self
Ġk ids
Ġneed ed
wend ung
Ġf Ã¼
ĠRe ad
hal te
ĠE mp
u ÃŁen
ind ung
Ġsign ific
M ail
ĠW ahl
hand lung
zeich net
iz in
ĠV ideo
Ġhat ten
Ġloc ation
ĠB and
z Ã¼
Ġest abl
Ġbeste ht
rÃ¼ n
as te
ĠPart ner
Ġd Ã¼r
i ol
Ġus ers
sh ip
k o
Ġart icle
Ġex ist
ĠSt art
Ġst ruct
Ġro le
Ġso on
icht ung
Ġbu ilt
ĠD ay
ĠH ere
ank en
Ġ >
arbeit en
ic les
Ġmo ve
ĠTe x
- ,
Ġreg ard
Ġphot os
ĠD an
is ted
i as
at ung
Ġprovid ing
Ġd ivers
ĠSt ar
Ġpre vious
ĠI T
Ġrec ently
Ġs ix
Ġbek ommen
Ġany thing
i os
P l
pe cted
ĠN et
ĠWe i
z us
Ġver wend
am in
Ġpr im
Ġsa f
ut t
D e
Ġs ales
Ġrel ated
ĠProgram m
Ġne cess
8 0
ĠCl ub
ĠM c
Ġv e
Ġus ually
ĠS oc
g round
ien en
let t
Ġhapp y
f Ã¤h
ĠR a
Ġtot al
sch ein
f rei
A us
fÃ¼ hl
Ġh on
ring en
h Ã¤ng
gen ommen
b est
is se
ro t
Ġstand ard
Ġne ues
Ġv o
i ar
ĠSt ates
ĠK re
ĠMe hr
Ġl a
ĠL in
T o
Ġâ Ĥ¬
Ġs ummer
Ġpre t
Ġgener al
at form
Ġlead ing
Ġint rodu
Ġin fl
Ġzw ar
Ġst ock
Ġrece ive
orn ing
pr Ã¼
Ġamaz ing
ant ly
ig te
wh ere
zeit ig
ĠNe u
rit ten
ĠS im
ĠSchwe iz
Ġbeh ind
Ġm ix
ot he
ĠB y
Ġc oll
Ġaller dings
er c
Ġc ell
ĠkÃ¶nn te
pl es
W ith
ĠTe xt
Ġhow ever
Ġsol utions
. âĢľ
Ġlang u
Ġso fort
Ġsp Ã¤ter
Ġw anted
v ille
Ġo il
Ġdet erm
Ġwar m
Ġsoll en
ul es
s c
ĠAl so
Ġl ay
Ġse em
itÃ¤ ten
er in
Ġspiel en
ond ere
Ġben Ã¶t
Ġstud ent
et imes
ĠEr w
ĠM Ã¤n
ir th
Ġze igen
istr ation
Ġflo or
lÃ¤ ss
ir it
ĠA c
Ġk ennen
Ġk m
A t
ĠLand es
ĠT her
c ement
ĠT or
me ister
Ġ8 0
ĠFamil ien
ĠH ouse
ann te
Ġgir l
Ġan geb
ĠThe men
ĠD ienst
ĠG ast
Ġpret ty
au gh
il en
ĠFra ge
ĠF unktion
Ġmed ical
ĠLe hr
Ġc op
y ear
ĠW and
Ġwall paper
/ /
te mp
Ġout side
Ġcho ice
ol it
Ġprodu ction
h le
ste ad
Ġto ld
end es
Ġw oll
ĠJ apan
Ġi hnen
Ġf resh
Ġcom ing
Â «
Ġ2 9
Ġw Ã¤re
ĠP f
rax is
Ġeben falls
Ġcons um
v al
un ch
and id
ĠPl ay
Ġf Ã¼n
ĠN ord
ĠgehÃ¶r t
Ġth ird
ĠP C
Ġpar ts
E x
ĠÂ «
ver age
ie der
Ġeff ic
Ġinsp ir
Ã¶ ÃŁe
ĠB u
ĠW ert
lef on
ese hen
Ġb lo
ĠCh ina
ĠU K
aun ch
ĠD ruck
A P
g ere
Ġauf ge
Ġb ott
ĠH aut
Ġa ction
Ġreg ular
Ġbit te
Ġex pect
Ġeas ily
Ġper cent
ge ber
ĠWoch e
Ġequ ipment
ĠT od
O T
amp f
Ġo p
ograph y
d es
Ġs un
ĠSo ftware
ĠEngl ish
ĠAb end
Ġb us
ie ÃŁen
tend ed
Ġit ems
is ierung
ĠEnerg ie
Ġst ren
Ñ Ĥ
Ġc ann
ĠK ultur
Ġme eting
ĠK ap
M e
n a
Ġk ont
ĠM Ã¤r
Ġtry ing
itÃ¤ ts
ra che
Ġgar den
ph one
ĠL auf
Ġextre m
Ġt ar
w irt
Ġe p
Ġall ows
Ġg Ã¼nst
Ġmom ent
Ġk am
Ġweek s
Ġam ount
ĠB ack
ĠH erstell
ĠHe alth
Ġc laim
ou l
Ġexper t
Ġdra w
ĠSt unden
Ġdr ive
Ġeinz el
Ġd re
ĠD amen
Ġm atter
w eit
ar ian
ver b
: //
u c
Ġb lock
Ġjed em
l ig
arbeit ung
Ġsuch en
2 3
ut h
ĠV erein
Ġde ep
ĠA g
utz t
4 5
ĠE nd
Ġmain tain
ĠIn nen
ĠFamil ie
Ġcou ple
Ġne g
sp ro
w es
Ġr isk
E T
Ġiss ue
ed ding
Ġrun ning
Ġchang es
Ġacc ording
Ġcont ain
ĠG el
un sch
v is
un kte
Ġsch wer
o e
Ġz un
z y
Ġse par
l ose
Ġsim ilar
Ã¤ mp
Ġd aher
Ġhoch wert
ĠA cc
Ġtyp es
l im
Ġfin al
ĠGes undheit
Ġnut zen
pe kt
as chen
Ġm at
Ġun ivers
Ġs tellt
Ġn ice
ed ic
Ġfor ward
Ġrepr esent
r ichten
o id
in z
ĠWind ows
Ġn am
or gt
ĠH al
ĠM art
Ġlink s
Ġass oci
ĠG ed
l ungen
b ased
ĠNe ben
Ġp sych
Ġsow ohl
Ġste p
ĠIde en
ell ow
Ġh Ã¤t
Ġsc reen
ĠM r
Ġf lex
Ġcom mer
ik an
ungs k
Ġg round
Ġc enter
b re
rie f
a ft
Ġrece ived
ĠMan agement
ĠBl og
ĠH D
ogra f
ĠP ass
p ack
Ġr ound
ĠG old
Ġg lobal
ok e
pl an
ĠA ugen
ĠG al
en ces
es te
ĠFor sch
Ġb i
Ġsa fe
Ġstor age
Ġhigh ly
Ġgu ide
Ġfavor ite
ĠReg ion
h ood
Ġex act
os ph
Ġl ate
ĠS ome
Ġgemeins am
Ġbe ge
Ġvers te
c il
ĠO f
Ġprogram s
Ġwor den
Ġmaterial s
Ġb ud
ust rie
Ġs ym
k or
Ġl ives
Ġgrow th
Ġincre ase
il er
Ġb al
Ġdo or
ĠH is
forder ungen
teil ung
ĠT ro
Ġdis cover
Ġjed e
Ã¤ te
Ġtru e
Ġrec ogn
m el
ĠZ we
ĠK lass
Ġprob ably
Ġbed room
ĠF ern
Ġc aus
Ġinclud ed
ur al
ĠKomm un
Ã ľ
l ad
Ġ9 0
Ġfl ow
al ien
ran ken
Ġimp act
Ġdeutsch en
fra ge
ĠL og
ĠJu ly
ĠH ilfe
Ġl if
k a
Ġpr Ã¤sent
ĠJ ack
ĠN or
ĠK o
Ġtool s
Ġus er
un t
ang er
olog ical
A b
ĠGem eind
Ġd ress
Ġm m
Ġcont rib
s weise
Ġans wer
wo hn
Ġbath room
l en
ro id
ĠEl tern
ĠTran s
ĠSe e
Ġpre p
ĠServ ices
rie den
bo x
Ġup load
ï ¿
Ġw id
ĠM icro
Ġwen iger
Ġexc ellent
ĠN Ã¤
yn am
2 2
av y
b ol
ï¿ ½
Ġeigen e
it zen
ĠEr folg
Ġcare er
ĠB rit
Ġbring en
Ġsch ed
ĠN ow
Ġc ode
ĠOct ober
r ig
Ġcontin ue
ĠF ort
Ġle ave
ict ion
Ġquick ly
ĠFot os
st re
Ġaddition al
ĠMich ael
fol gt
ust er
P S
Ġimpro ve
ĠW el
w or
cre t
Ġeig entlich
ĠS and
Ġphot o
m Ã¶glich
ie gel
ĠC D
Ġpoin ts
en nt
Ġre gel
A ls
ĠD el
ĠMar ch
g Ã¤n
Ġges am
ĠSt Ã¼ck
Ġbo ard
Ġcond ition
Ġhel fen
se hen
ĠD ank
ĠT w
Ġlead ers
Ġf ig
ĠB rand
Ġwor ds
Ġt ouch
bes ondere
Ġm orning
ĠFot o
Ġsol ution
G e
b ank
ann er
Ġlook s
ĠM ass
ĠFl or
ro s
Ġst op
Ġeffe ctive
ge f
ar a
Ġhe iÃŁ
ĠZ um
u pp
Ġpl atform
ĠH inter
Ġup on
Ð ½
ahr en
ĠH in
hÃ¶ ren
ĠF rom
Ġsa ve
Ġer hÃ¤lt
ient en
Ġ200 9
D es
it ation
ĠHer z
ĠK opf
Ġsug gest
b esch
Ġcl ub
Ġg reen
ĠHe im
Ġse ek
Ġre fer
ĠPh ot
ĠM at
ĠW ell
Ġb ase
l ier
Ġhin aus
f it
Ġfre uen
Ġs ent
ĠColle ge
Ġf air
Ġdes crib
Ġs qu
au ber
hl er
Ġl os
Ġh it
is c
E O
Ġtradition al
ĠO kt
Ġintern et
et ten
if orn
ak te
Ġcom ment
ĠM illion
Ġver m
stra ÃŁe
erv or
pr ession
Ġor d
ĠnÃ¤ch sten
Ġw oman
Ã¤ ss
Ġel se
g a
ĠAn gel
ing ton
Ġlik ely
Ġgra du
Ġcommer cial
er ie
ĠH all
Ġde f
Ġge eign
at ory
Ġa ffe
I D
for d
Ġ7 0
V or
ĠIm m
Ġs ource
Ġkein en
Ġbis her
Ġdis play
ĠPres ident
we hr
Ġg lass
A D
Ã¶ffentlich t
p ose
i ation
Ġ- -
Ġsu it
Ġc redit
Ġfe ed
ag ue
Ġin j
Ġpart ners
i pe
Ġm er
ov ers
Ġexp la
Ġh Ã¤uf
Ġpre m
Ġl aunch
Ġwork ed
ĠAf ric
9 0
Ġd aily
Ġsh op
o oth
ĠSm art
Ġis n
il led
ĠS uche
ĠSe c
Ġany one
Ġber eit
ĠT erm
Ġcond itions
Ġgo al
Ġinner halb
Ġwrit ten
ĠR ock
ren ch
osp ital
Ġcor re
ĠAmeric a
I L
ĠEin zel
m us
Ġr ather
sch ul
u el
Ġm Ã¶
Ġk lass
Ġapp ly
im um
ĠL es
Ġpr ices
m on
ll er
Ġal tern
Ġg re
ĠSch utz
geb ung
pro du
richt ung
id ing
Ġweit eren
Ġsaf ety
ĠPa ul
Ġver d
schn itt
Ġf ant
Ġcir c
Ġpr in
Ġpar ents
ĠFr iday
Ġverwend et
Ġspe ed
Ġpubl ished
ĠT Ã¼r
Ġre lease
O M
ĠF Ã¼hr
Ġwr ite
ĠK auf
c el
Ġth er
vent ion
Ġwe ight
Ġpie ce
ad s
ge h
Ġsp ort
Ġf la
Ġs al
A nd
ĠM ond
Ġbec om
ĠG roup
Ġres ources
Ġl oss
ĠZ immer
at ives
n es
Ġg ed
Ġpat ients
Ġpl ant
b an
hl t
ad urch
ĠM Ã¶
h ouse
ĠMus e
Ġw in
rie bs
as er
Ġg ing
ĠAb s
ĠM ai
Ġa im
ĠInd ia
asch inen
i able
ĠGÃ¤ ste
ĠP ap
ĠM ein
ag t
Ġapplic ations
U m
as en
ĠPol it
ĠfÃ¼n f
ne w
id a
Ġlong er
om as
ges amt
Ġpol icy
Ġg ives
Ġe mer
ec ut
Ġse ems
Ġfun ktion
u tet
Ġmov ie
Ġp o
ĠProble m
Ġpr ior
h af
Ñ Ģ
Ġask ed
ĠR el
r um
Ġplay ing
se qu
gem ein
Ġab ility
Ġdec ided
Ġplay ers
ĠSch m
av es
ent y
Ġbe ach
ĠC ons
Ġb all
Ġrem ain
H ow
Ġsie ht
Ġp ool
ess or
h nt
zeit en
aus ch
Ġess ential
an geb
ĠS atur
ĠChrist ian
as che
p ut
Ġwor d
ĠFar ben
S T
it ze
Ġdevelop ed
ha ft
Ġgut en
och en
rou ps
Ġhand s
i ers
Ġpl anning
ĠS itz
ĠN amen
Ġpurch ase
Ġo bs
Ġh or
at ic
Ġf ab
or es
re c
us st
ĠL icht
f el
Ġinter ested
Ġc ross
ĠAn fang
Ġrele ased
ap ie
Ġn a
he in
all ery
Ġh ar
je kte
Ġle gal
Ġ Ã¶
es tens
Ġkonn ten
fall en
Ġfor mer
Ġd ur
Ġf ix
n y
ĠI mp
mit t
ot es
Ġnot hing
ĠWei hn
us ion
Ġhig her
Ġp rakt
ĠMed ien
re ibt
ĠB Ã¼rger
Ġre v
M y
il f
ĠS P
m eld
Ġde utlich
Ã¤ chen
ĠGeb Ã¤
Ġble ibt
ich ter
Ġhe ar
ĠOkt ober
Ġ200 8
Ã¶ nen
ĠS und
s ing
Ġeing es
Ġs end
il es
w Ã¼r
ĠUr laub
ab e
ill ing
Ġdar Ã¼ber
er ve
Wh at
ĠE igen
imm ung
ra b
ĠMot or
re ise
Ġb ank
Ġde b
as c
Ġw elt
ord in
ĠN icht
k reis
Ġreg ion
er st
Ġtro tz
Ġbenef its
Ġw ish
ere i
S e
M an
Ġsom it
Ġg anze
en a
erv ice
ĠC amp
b Ã¼
sp rech
ĠE ink
Ñ ģ
Ġho he
ff ic
E C
w issen
en ted
7 0
Ġful ly
por ate
Ġme inen
hal ts
M S
ĠP ubl
ĠFe uer
Ġter ms
Ġakt uellen
b ahn
W ie
ĠL uft
Ġon es
ĠFin anz
Ġd ise
es h
eh m
Ġent ry
Ã¼nst ler
Ġatt ention
ĠB aum
Ġmehr ere
l am
il igen
Ġarbeit en
Ġgir ls
Ġanalys is
Ġ3 1
Ġe her
Ġb and
Ġreg ul
tre ten
ĠGe bur
ĠAm az
iv ity
iv il
i us
ĠC ent
Ġre in
rÃ¼ ck
fahr t
Dies e
mar kt
ĠfÃ¼hr en
ĠDe partment
3 5
ĠHer r
a ign
b on
ier ungs
sch uhe
los s
Ġopt ion
9 9
land s
f Ã¤lt
Ġre fle
ĠBeit rag
Ġent ste
ĠWh ile
ad es
fl Ã¤che
ĠRe al
Ġex tens
oun ts
ar ter
ge hen
sh op
Ġem ot
Ġpos itive
Ġc ause
it ar
se e
Ġz eit
i am
ak ers
ipp ing
uch te
Ġfre i
Ġver gangen
w alt
r ation
O L
Ġcomp lex
Ġpl us
ach ts
Ã¶ hn
omm t
Ġcann ot
Ġinvol ved
at iven
ce ed
Ġentwick elt
ĠK ur
Ġrem ember
Ġh uge
Ġw ahr
Ġ3 5
W er
ĠIn vest
Ġlangu age
ĠUnter stÃ¼tz
z a
f ung
Ġir gend
Ġim m
Ġc abin
lie d
ian ce
Ġsuccess ful
Ġwor th
Ġlevel s
Ã¤ llt
Ġorgan ization
as ons
Ġle ben
p end
Ġtr ip
Ġrem ov
m od
Ġunter st
Ġbefind et
Ġsub ject
ve y
Ġde ath
Ġv ideos
so ft
ĠW ein
Ġc ert
w ie
i at
ĠH ause
ĠFre und
ĠTeil nehmer
Ġh ervor
ĠfÃ¼hr t
ic o
Ġinterest ing
mÃ¤ÃŁ ig
ĠB a
as ten
ĠD ach
ĠB oden
Ġrequire ments
Ġdr ink
ĠBer g
r ist
st o
Ġcreat ing
im men
Ġd ro
ĠM er
Ġres pect
ĠD re
ĠS ur
ĠM aÃŁ
ĠIn c
Ġwe gen
ĠC oun
it ten
Ġc y
is p
Ġer fahren
d ienst
ĠR Ã¤
al tet
ibr ary
ĠZu kunft
Ġex cept
Ġstren gth
Ġmult iple
Ġcount ries
Ġt ick
ĠS ub
m ission
Ġch ance
Ġk om
Ġreview s
Ġg old
ver stÃ¤nd
ĠAr m
Ġser ious
Ġbe ispiel
Ġer klÃ¤r
ĠG est
Ġble iben
Ġer reichen
g ree
um in
Ġhelp s
Ġte le
Ġen h
iforn ia
ultur al
Ġdar f
Ġatt ack
Ġso zial
âĢĿ .
ĠV is
Ġd om
Ã¼n sch
om s
ĠMÃ¼n chen
Ġin tens
Ġ19 6
Ġse ction
ill a
Ġconst ruction
on nen
ĠK ing
Ġhal ten
Ġerfolg reich
Ġl iter
ĠÃĸ sterreich
ĠSch laf
Ġf and
Ġhand elt
ist ry
ak ter
op t
ct ors
ĠSp aÃŁ
ĠRe c
G B
ĠErfahr ung
ĠC asino
Ġjed es
ĠWir k
arbeit et
Ġkl ar
Ġout door
gram m
Ġc at
ipp s
i ra
Ġenc ou
Ġim med
ĠM ac
Ġpla ces
Ġcolle ge
v ant
l Ã¶s
am b
Ġge bra
Ġviel leicht
Ġb row
Ġdec ision
2 1
is er
ms el
Ġb irth
Ġd edic
rÃ¤ gt
ro ffen
ich en
ĠM ill
ĠP et
Ġcont ract
f ert
g as
Ġreg ister
v in
Ġb aby
ĠAss oci
Ġe arn
d ie
Ġtra in
gr iff
ĠJanu ary
ĠM or
f urt
ren z
ĠDaten schutz
j a
Ġsag te
ĠF erien
O ne
Ġcons ult
B ut
la x
ens ion
ĠEle kt
ipp ed
Ġnecess ary
Ġf irm
Ġl ower
Ġs agen
Ġan im
ĠMÃ¶glichkeit en
Ġab ge
lie gen
Ġâ Ĩ
Ġsag t
v ision
ĠU ms
Ġg roups
em b
Ġkle in
Ġd ark
ĠW ien
H ier
Ġinvest ig
Ġan aly
Ġm ount
Ġe uro
ĠHer ren
Ġsm art
Ġsele ction
ĠEnt scheid
Ġpr int
ĠDam it
ĠB all
ĠSatur day
Ġfor t
msel ves
Ġf rÃ¼
Ġsa w
ll ig
stell ungen
ĠLie fer
Ġpart ner
Ġdesign s
es tern
Ġoffer ing
Ġveh icle
be wer
ann e
Ġset t
ĠMillion en
Ġbusiness es
z uf
I P
Ġsur pr
e es
ĠO pen
rit te
Ġwonder ful
ĠNach t
Ġdefin it
Ġind ic
ĠStre et
Ġthe mselves
ĠJun i
Ġorgan iz
g ruppe
ens ive
ĠF le
Ġfin ish
Ð¾ Ð
Ġdirect ly
ĠA ud
ĠL aw
ent lichen
ĠT ages
A uch
ĠSu pp
w ide
ĠC le
Ġbe gan
Ġmach ine
ĠSch uhe
U N
Ġcomplete ly
u it
v olle
Ġg iving
id ents
ĠS Ã¼d
ĠL age
ĠHÃ¶ he
we isen
Ġgra ph
2 6
ĠP ers
ĠM el
ĠL ang
com ing
h aupt
Ġgeeign et
ĠS it
ab en
fl anzen
Ġbest imm
Ġbl ue
uÃŁer dem
Ġh tt
Ġl ux
Ã¤d chen
pt ion
ĠSon nt
ord nung
Ġtran sport
m osph
Ġind ustr
s icht
Ġc ateg
Ġits elf
Ġlie gen
ĠTra ining
ĠHam burg
ð Ł
Ġde in
ĠP an
Ġp en
Ġindividual s
bie ter
Ġd iv
ĠT ur
ktion en
ĠM ain
ĠA lex
Ġbe vor
ĠEr n
Ã¤ch lich
Ġw edding
2 7
Ġgrow ing
Ġget s
id ung
Ġh ous
Ġf ashion
Ġs ell
ord s
Ġey e
on se
Ġdev ice
Ġrep air
w ill
Ġne igh
ĠK raft
Ġt Ã¤
Ġst ress
ĠK olle
Ġad j
ĠPerson al
m ack
Ġdistr ib
m Ã¶glichkeit
os ted
ĠSch ule
Ġent de
Ġcl oth
Ġn ature
Ġunter stÃ¼tz
ĠG ott
Ġpat tern
Ġopport unities
pp ed
ĠH y
ĠW ald
ĠJ ob
ĠGl Ã¼ck
we gen
Ġl isten
Ġl ost
qu e
ĠSund ay
2 8
on us
ĠP eter
ĠK Ã¶n
Ġno te
chite ct
Ġob ject
Ġapp e
O C
Ġexperien ced
Ġl ic
Ġso c
Ġch em
ig ent
ĠM ax
ĠG rÃ¼nd
ig ur
ce p
b ark
uch ten
uf e
im in
ĠK reis
aur ants
ĠF rÃ¼h
Ġgo es
ĠK ategor
Ġsen se
Ġan g
ĠO l
Ġag re
Ġch urch
ron ic
E M
Ġth ous
tell ung
ib ly
Ġk ur
Ġc ases
Ġdoc ument
od es
ru it
) :
ĠC our
ĠFar be
i est
att le
Ġsch le
Ġle ider
Ġo l
Ġmy self
B er
te xt
ĠM Ã¼
Ġstart ing
Ġsur round
ĠR em
les en
rou ght
Ġbec ame
ĠSp iele
Ġbeispiel sweise
per atur
Ġg ain
schlieÃŁ lich
Ġmit tel
Ġmein em
im a
ĠIn halte
i ant
ĠA ct
Ġweek end
Ġt en
c ast
ĠI r
Ġs onst
Ġc ulture
Ġphys ical
w ind
Ġd ry
Ġinst it
ĠI S
Ġo ben
Ġh Ã¶ch
z ig
Ġm other
Ã¼n ft
Ġander em
al ing
U R
re u
Ġp ath
ĠInd ian
un te
Ġde ine
Ġstor ies
c a
ĠDec ember
ĠS eit
Ġcond u
s pe
ag o
Ġro b
Ġcomfort able
ĠA re
ĠF irst
ut or
ĠO per
h old
ĠSam stag
k osten
ĠÃĸ ff
ĠUnternehmen s
Ġa verage
k ont
n ach
U nd
Ġh und
ĠBes uch
Ġro ck
ĠApp le
on a
ĠG reen
ĠOff ice
Ġspe zie
Ġzw eiten
A fter
ĠJul i
ĠSch ne
Ã¶ st
w asser
Ġf ert
Ġwel ches
ĠB ur
ĠKÃ¼ che
ĠK Ã¶l
ĠEurope an
Ġrep la
Ġob tain
ĠV ere
ĠAmaz on
ĠSh op
In ter
Ġk aum
ĠâĨ Ĵ
ĠAl t
ĠSo zial
Ġfor get
ĠD ort
ut ung
ĠRe i
Ġgegen Ã¼ber
ul a
alt ungen
au ght
an cy
Ġin kl
ĠVer gleich
Ġset zen
Ġinter view
u ted
ĠâĢ ¢
Ġn ov
Ġgef unden
ĠVer kehr
c ies
teil en
Ġa ward
ĠGener al
Ġsp end
ĠD igital
Ġmed ic
ĠV ersch
Ġat tend
ĠE very
Ġunderstand ing
Ġs outh
Ġhealth y
ur er
am ous
ĠChrist mas
ĠC lass
ĠT ier
ĠDav id
ĠCal ifornia
âĢ ĺ
ĠI I
be zogen
s es
Ġsignific ant
zie hen
ĠC r
Â °
Ġs y
ne te
ĠGl as
se in
Ġ200 7
w Ã¤r
g in
g arten
Ġs on
Ġg ift
ar ante
ĠT agen
wirt schaft
ĠW ett
Ġcost s
ĠWe ise
ĠWh ite
ĠSpiel er
d y
Ġpain t
Ġcamp aign
Ġfamil ies
Ġh ast
Ġcap t
Ġer forder
Ġein s
ĠJ es
ond s
ran ge
Ġto wards
ĠAn n
Ġ4 5
g rÃ¼nd
ad y
Ġt im
ach ing
ĠG ruppe
Ġprof it
it a
ĠUn sere
Ġsupp ly
ĠGes ellschaft
ĠP sych
ĠFir men
ĠdÃ¼r fen
Ġhe at
l ike
ind est
Ġwer de
ĠNutz ung
ĠOr ig
Ġal ten
Ġme chan
Ġv irt
Ġbas ic
ĠR ob
Ġpro gress
p ark
ĠE ast
Ġw ohn
Ġz uf
ĠZ ust
itz er
Ġsch l
Ġaut h
Ġg rand
ĠBe handlung
g ers
Ġpre c
mittel n
Ã¶ sen
Ġh arm
ĠMÃ¤n ner
Ġthink ing
or der
Ġent fern
ĠAngeb ote
Ġcreat ive
Ġcar ry
it ag
ĠSp an
om et
ĠhÃ¤uf ig
it ial
Ġm el
ac es
klÃ¤r ung
ĠE duc
Ġwe ar
Ġn ation
ken nt
ĠPart y
ze ugen
p reis
z ub
Ġsp irit
B C
A G
ĠM ost
Ġsom etimes
Ġsp ot
Ã¤t zen
Ġun ver
Ġvor hand
Ġannoun ced
Ġre ve
ĠM id
Ġown ers
ĠKom ment
Ġso ft
ĠMÃ¤r z
be w
st it
Ph one
T ra
d om
ĠPrÃ¤ s
ĠA G
Ġconsider ed
qu al
el te
Ġsel ber
Ġpre fer
Ġabsol ute
Ġorig in
Ġpur pose
sp ar
âĢĿ ,
Ġ rom
ĠDies er
Ġb orn
ĠEuro pa
min ister
v ement
gesch lossen
ĠF Ã¶rder
Ġge hÃ¶ren
as y
st Ã¤r
Ġche ap
Ġf ine
E n
ĠGes pr
y er
d ate
yste me
al og
y ond
os oph
k i
Ġho hen
Ġjewe ils
Ġre lax
in i
ĠP ower
f riend
ĠV oll
ĠheiÃŁ t
ab il
Ġs atis
ĠNÃ¤ he
h ang
ra ge
Ġus es
Ġm aster
ĠP flege
it ness
Ġunterst Ã¼tzen
7 5
ĠW ed
ĠD ir
ie ten
ĠG reat
Ġl en
ĠMod ell
Ì Ī
Ġwe ather
ĠS et
Ġeben so
Ġo w
um n
ĠUnterstÃ¼tz ung
ĠA v
ust ain
Ġp ages
Ġad vert
Ġ201 9
is ieren
te te
Ġin stead
A pp
Ġh our
Ġroom s
Ġac qu
iqu es
Ġd essen
Ġaff ord
ĠC ap
Ġlim ited
ĠDeutsch en
Ġmit t
Ġactiv ity
ĠS ym
Ġtem per
Ġblo od
ĠT hen
Ġp et
Ġschool s
ar ies
ĠÂ ·
Ġcl ient
im ately
l ern
ra el
Ġ %
ĠO st
ĠP raxis
ĠMark eting
I M
ĠKind ern
ich e
ecut ive
ĠL eit
am ing
Ġk Ã¼
Ġdou ble
ol den
ĠTh omas
Ġme ist
Ġbro ad
ĠMond ay
ier ter
Ġass ess
Ġs old
Ġeinz ig
ik um
eder al
ĠGebur t
Ġexact ly
re m
Ġbring t
Ġst age
Ġadv ant
g u
it ary
Ġtar get
Ġm ention
ĠR olle
Ġex erc
Ġal t
Ġakt iv
ip l
Ġbud get
Ġplay ed
Ġpolit ical
ĠHer aus
g ant
Ġl ernen
ĠF en
Ġs us
ĠL ive
Ã¼hr en
Ġess ay
Ġu til
w irk
il ing
Ġdes halb
p lace
t est
Ġsc ience
ĠÃľ bers
ĠT able
Ġvergangen en
ĠSonnt ag
Ġsp orts
ĠLie be
ĠSt at
ĠKle in
ĠJahr h
Ġf arm
ĠK ranken
ĠMitglie der
ĠN ur
Ġele kt
Ġv ac
Ġcon vers
uf fer
fÃ¼hr er
ch ange
in os
ĠH ist
Ġv iol
ĠB i
ĠN ieder
ĠB ig
c m
g g
in y
wo hl
leit er
Ġres olution
leist ungen
ĠMin ister
id el
ĠAnd roid
og a
Ġpro pos
ĠStra ÃŁe
o der
sche iden
Ġmov ing
ĠR ot
ĠDe z
Ġ =
Ġrequ est
ĠStand ard
Ġhom es
ĠSte uer
ĠW etter
ĠM utter
Ġer folgt
Ġmod els
Ġsub mit
Ġlar gest
p ass
Ġsing les
Ġwoll te
ĠW ash
ad o
ĠWohn ung
bra uch
ĠPre m
in ne
2 9
Ġer mÃ¶glich
Ġcon ven
Ġins besondere
Un ter
kt iv
ĠAus bildung
Ġent ertain
O P
n ow
Ġresp onse
Ã¼r z
Ġplay er
our ney
Ġac cept
Ġg as
Ġch air
Ġsc r
Ġdeliver y
ĠDe velop
ut zen
ĠSa ison
Ġeffe cts
ĠB ran
Ġbede utet
ĠPol iz
ĠK al
0 1
Ġfre qu
ĠAn aly
Ġl ands
Ġeff ort
3 6
ĠF ind
lie ÃŁen
amm lung
Ġimp lement
olog ies
Ġdem onst
ĠSon nen
we gs
k om
Ġnot wend
ze igt
Ġcoll abor
g liche
k Ã¼
or den
k unden
ĠT isch
ĠW unsch
ges etz
ig ungs
ident ial
Ġd ig
ĠEnt wick
b a
ic ed
ab hÃ¤ng
re icht
ĠZ ur
Ġser ve
Ġdet a
c ape
ĠW ild
ĠUm welt
ĠComp uter
ĠM ult
Ã¶r t
0 9
halt ung
fr ist
r al
Ġn orth
Ġex hib
ok ument
a ction
Ġcon cept
ĠE ing
ã ĥ
Ġcomp on
ist ics
ĠEn ts
0 5
ĠL iter
ĠSh ow
Ġdeutsch e
Ġw ife
ang ing
ic kt
an lage
Ġact ive
Ġgo als
am mer
Ġbeh av
ze p
meld ung
Ġoffer ed
ur r
Ġco ffee
Ġsle ep
ĠB us
Ġl ots
Ġde gree
ĠM aster
Ġv ict
Ġinvest ment
ĠAn g
qu em
ĠDies es
Ã¼ b
temp or
Ġw ild
ĠK urz
Ġaus gest
ĠA uss
ĠPl us
Ġd at
ĠFebru ary
asch ine
Ġmess age
kt or
Ġro ll
i ately
teil t
Ġst ation
IN G
Ġback ground
ĠB ahn
s et
fe hl
ĠRe in
ĠunterstÃ¼tz t
Ġex pected
Ġey es
ĠChe ck
r as
stand en
se x
d orf
wert ung
Ġv an
up s
f ield
t ies
ĠW all
ges etzt
Ġfolg enden
Ã ¡
Ġl ack
Ġpro ced
ĠM ad
y ing
Ġlo ved
Ġf ight
Ġgr und
c ul
Ġsh opping
al led
bur ger
ĠM iss
Ġex press
ĠMart in
Ġein igen
ĠT urn
ĠRes earch
h aps
neh m
ĠB al
ĠFar b
Ġdar an
ĠEs sen
let ter
Ġs orgen
at in
ĠM em
â Ĥ¬
Ġinfl uen
Ġ3 6
ĠBo ard
ous ly
ĠI P
ĠD ate
w agen
ĠS om
ĠSt rom
Ġrel ig
Ġe dition
schl ag
Ġsl ow
ĠCh urch
Ġbeg inning
Ġj em
ĠD azu
Ġg anzen
Ġand ers
ste lle
Ġt ips
ĠA uÃŁerdem
ut s
Ġdev ices
at tet
Ġver t
ĠAll tag
N ew
ang el
techn ik
Ġi Phone
Ġer ne
ĠV e
Ġsp ann
ra cht
Ġtru ly
Ġr ights
Ġsp ent
f ast
Ġgu arante
Ã¼ss el
ĠR ichtung
us ed
Ġest ate
Ã ĥ
f asst
ĠBer atung
Ġhol iday
Ġhe ard
Ġb ill
ĠR ich
ĠP rÃ¼
Ġadv ice
h ow
urs day
ĠAn tw
Ġtit le
ĠEr st
l ies
Ġver z
Ġrep orted
Ġpol ice
jÃ¤hr ige
ã Ĥ
Ġclass ic
ks am
Ġ5 00
Un sere
ĠD ien
ĠUm gebung
1 00
mÃ¶glichkeit en
Ġhigh est
Ġcl in
anc ing
ost er
ĠM ess
Ġal bum
Ġpre vent
fr ast
Ġinnov ative
ĠErgeb nis
ĠE ar
Ġmus ste
Ġc asino
pr Ã¤
ĠFahr zeug
ĠZ ahn
ap y
ze uge
Ġocc as
ĠIn form
Ġmean ing
W as
is ions
Ġemploy ees
ĠVer kauf
Ġe he
ur b
Ġrep orts
ĠC as
ĠI st
ĠC ook
ĠhÃ¤t te
ĠT om
Ġdefinit ely
Ã¼ gen
ĠK omb
ap ter
Ġs an
ar es
Ġpre d
ĠZusammen arbeit
Ġfin ally
zeich en
z Ã¶s
ĠermÃ¶glich t
Ġtra de
Ġu lt
Ġzun Ã¤chst
te uer
st on
Ġal te
Ġdem and
k el
Ġelect ric
Ġfeel ing
ĠWirt schafts
Ġsch Ã¶ne
ĠEng ine
ĠS T
ĠBas is
ĠGr Ã¶ÃŁe
az z
e ine
s eit
ach er
Ġst uff
uck er
Ġdet ail
ĠK er
ĠCan ada
y les
Ġstud ies
Ġmot or
ĠCh amp
Ġincre asing
Ġver k
ĠSoc ial
ge gen
ĠF rench
Ġsuch t
ĠBet rieb
9 5
Ġdedic ated
ir ing
ĠMicro soft
h enden
Ġentfern t
ĠSpe zial
Ġw und
ch ter
ĠTit el
ĠAssoci ation
ĠComm unity
A lle
Ġder zeit
Ġf ran
ĠMen sch
Ġverw enden
Ġhelp ing
Ġeinzel nen
n am
c ont
Ġr ich
Ġprofession als
ĠW eit
Ġpass ion
Ġwr ong
ĠÃ¼ b
b u
ĠS uch
Ġer hÃ¶
ĠS ter
ĠAustral ia
S S
Ġw inter
ĠVert rag
Ġb rought
Ġde ad
ĠFre itag
ĠR os
Ġnum er
Ġfil es
3 2
cl usive
Ġart ist
p m
Ġzu dem
' d
ĠM Ã¤dchen
Ġw he
Ġauf grund
Ġst ates
Ġsele ct
chn ung
Ġd ank
hr ough
Ġcorre ct
itz t
ĠVerb indung
augh ter
Ġh op
sp rÃ¼
as ts
Ġdire ctor
schlieÃŁ end
ĠL oc
Ġre chts
ues day
ĠR et
Ġeinzig art
ĠJ ed
ĠFuÃŁ ball
ĠMuse um
Ġmethod s
ik al
Ġinter ior
Ġg ave
ĠP ress
ĠV ideos
Ã¤nd ert
Ġs ort
Ġvorhand en
C l
ĠE ben
Ġregard ing
. :
ĠG rÃ¼
Ġge k
In nen
Ġpower ful
Ġen gl
Ġsit uation
tempor ary
ĠS telle
ĠErfahr ungen
Ã¤ cht
ĠH um
ĠAr ch
ĠEng land
ĠSch wer
Ġ ðŁ
Ġh y
ĠK la
4 8
ĠTe lefon
ĠMed ia
ĠG ir
os ing
um ents
Ġd ynam
Ġann ual
b it
Ġer z
Ġsc ient
ĠJanu ar
p ite
Ġeconom ic
0 6
Ġac adem
Ġav oid
re hens
Ġc ards
0 8
ĠGemeind e
Ġs orgt
Ġview ed
un ning
ĠSch warz
ot a
ĠProble me
Ġmid dle
ĠFir ma
s uch
ĠPat ienten
Ġbeaut y
fer enz
Ġview s
Ġs av
ĠH or
Ġzahl reiche
ĠAuf gaben
ĠGo vern
ĠG ruppen
Ġun it
Ġverb unden
r ate
s m
lin es
ĠAkt iv
Ġent halten
Ġmot iv
Ġf elt
- -
ĠÃ¤ hn
om a
we ile
Ġeas ier
Ġc andid
ĠImm obil
an o
Ġassoci ated
ĠB rÃ¼
ĠSch ritt
Ġj unge
Ġapp rec
Ġcol ors
Ġev al
b ro
Ġge geben
Ġstra ight
M ar
4 9
Ġset ting
ĠE ach
S eit
ten ance
Ġappro pr
ie b
Ġverb ess
ĠGerm an
Ġf em
k re
L E
ĠJes us
Ġm icro
ĠAl ter
Ġaut om
3 8
omm od
ĠCh in
Ġlen gth
ĠA ust
Ġfriend ly
lieÃŁ lich
Ġdise ase
bark eit
ĠT ab
Ġphot ograph
ill age
0 7
Ġin fo
r uf
Ġa k
Ġgar ant
p age
Ġna he
Ġuse ful
Ġextrem ely
u hr
Ġbenef it
Ġperfe kt
Ġr ates
Ġb ur
ĠL ook
Ġpr inc
Ġchar ge
ĠUn ion
T V
à ¸
ant a
Ġwind ow
h y
ĠTh ursday
ĠV ors
ond ers
ĠM ount
ĠRe gen
Ġprom ot
Ġakt uelle
Ġbas is
ĠB ud
ĠComp any
gr if
icht lich
Ġacc ur
Ġeffic ient
ĠD isk
ain t
Ġindivid uell
Ġinc red
nes day
Ġim ag
Ġc ru
Ġ ing
rol le
i j
Ã¤l ter
Ġ200 6
ĠInter esse
I V
opp el
Ġple as
Ġf amous
Ġd ining
Ġlet ter
spr uch
ĠK an
ath ol
rÃ¤ ger
ĠBe ach
Ġangeb oten
Ġwel come
Ġin itial
Ġw ants
Ġl Ã¤nger
ĠDez ember
ar ily
Ġover all
leit et
B A
ĠN ame
Ġmet al
ĠI d
ot o
be k
Ġch at
ĠRo ad
ang s
Ġsur face
pro chen
Ġins gesamt
ĠS icht
ĠTr ump
Ġexist ing
Ġtre ffen
Ġf ather
Ġj ud
Ġcent ury
ed ia
Ġj ourney
ĠKÃ¶l n
ĠCoun cil
h ung
zieh ung
ĠEduc ation
ich ert
ab et
r is
ĠG ood
ol a
ĠP ublic
ag ra
sch rift
ĠW olf
we chsel
Ġf at
Ġteam s
Ġcont ains
Ġste el
Ġpie ces
Ġnam ed
Ġgest alten
pe cts
leb nis
Ġcomple ted
ĠH ard
Ġtrans fer
ĠIn f
ĠRe cht
Ġpress ure
S P
Ġprote ction
g rad
ĠU N
I G
ik o
Ġbesond ere
ĠS ong
Ġestabl ished
ĠH o
Ġkomp lett
Ġemp f
Ġwe g
ĠW o
Ġachie ve
ic ing
Ġstrateg y
Ġl ines
ad er
Ġprodu ce
Ġchallen ge
Ġbe yond
geb iet
ĠBes ucher
R O
nd er
Ġdam age
ĠB il
B l
Ġmeas ure
Ġm ap
oper ation
Ġun ten
ĠverfÃ¼ g
ic ious
Ġsec ure
w ir
Ġh us
Ġgra de
ĠAn wend
c are
ĠL o
ven ue
ĠBrit ish
m ore
Ġs etzt
h ard
ĠG leich
ĠH und
h ner
V D
Ġakt uell
stÃ¤nd ig
Ã¤ llen
Ġer fÃ¼
ĠTechn ik
Ġow ner
Ġgew orden
Ġt ried
letz t
ly ing
201 7
Ġf al
Ġda ÃŁ
ĠVers ion
ĠBed e
ĠJ ames
ĠL im
Ġ19 5
ur f
Ġhund red
ĠFre i
d ed
Ġm ission
Ġar chitect
ĠHotel s
Ġste ts
av ig
ĠR und
Ġth anks
Ġsol id
ĠLÃ¶s ung
Ġc old
ĠStra ÃŁen
k rÃ¤
Ã¶ p
ĠFl Ã¼
Ġstruct ure
Ġt ats
i xt
0 3
ĠMe er
wes ome
ĠO ver
ĠAl tern
Ġclean ing
ent wicklung
ĠB aby
Ġr ichtige
Ġdiffer ence
ĠWeihn achts
ĠM any
av a
ĠVeranst altung
R A
jÃ¤hr igen
D a
iz eit
st ud
ĠStud ien
ier enden
Ġro t
g y
Ġwas n
Ġserv ed
Ġs tell
Ġtechn ical
ĠSal z
Ġn ar
Ġocc ur
Ġfind ing
richt ungen
Ġar m
Ġd ream
reib ung
ĠT uesday
Ġcons ist
Ã¤ um
. -
ge fÃ¼hrt
en er
ĠWash ington
Ġf ail
ĠSte in
Ġpre par
Ġl isted
ĠD istr
Ġb oy
re it
pÃ¤ ischen
ĠIhr es
Ġjob s
or gung
Ġcap ital
az ine
Ġopen ing
ĠMen ge
ĠY ear
Ġit em
ĠzusÃ¤tz lich
ĠU s
ungs ver
Ġswe et
ĠB itte
Ã¤us er
Ġthous ands
Ġb atter
ĠL ife
Th ese
aus s
rou d
ĠMitglie d
Ġturn ed
Ġinter act
Ġc ast
ĠTex as
st Ã¤t
ĠW il
Ġver g
Ġunser es
Ġexp and
g enden
in ary
Ġg allery
Ġtr ust
rei ber
Ġhig hl
y a
ĠWohn zimmer
Ġsch warz
Ġc ash
Ġret ail
Ġcon ference
ĠInstit ute
Ġa f
Ġad vent
Ġdivers e
stand ing
Ġin f
ĠGebÃ¤ ude
akt ion
Ġcontin u
Ġc amera
Ġst Ã¤r
Ġd ram
Ġwa it
ĠP ay
ach el
T S
H er
Ġprote ct
Ã¼tz t
ĠBeruf s
Ġcour t
ik t
Ġfe et
Ġdr iving
re l
ges tell
ĠL et
Ġsc en
Ġe th
c ol
Ġf ans
Ġredu ce
Ġs ets
ĠÃĦ r
ro te
ier ende
Ġgen ieÃŁen
ĠF ound
Ġcertain ly
ify ing
Ã¤nd ig
ĠC are
ĠZ eich
Ġrespons ible
ĠG rand
ak s
Ġtechn iques
pl ant
Ã¼r f
Ã¼n schen
ĠMus ic
Ġvor her
ud em
os h
m ail
Ġjem and
ĠA uÃŁen
ĠSch Ã¶n
Ġv erein
ĠJ etzt
ĠV ir
ann el
ĠI N
Ġexperien ces
ĠD ra
ĠG ren
Ġman ual
Ġz we
fra gen
iz en
n ungs
ĠD om
D S
ĠBeg inn
Ġteach ing
ill er
ĠL ED
ĠDire ctor
ĠL u
d aten
ĠM om
t r
or gan
ler weile
Ġim press
O r
v ere
w altung
ĠIs land
p erson
m ing
Ġchallen ges
Ġfac ilities
sto ffe
Ġb ag
Ġw ine
ĠT H
Ġs and
al ed
ere cht
Ġadv anced
Ġs uffer
ach s
ĠWed nesday
B S
Ġinde pend
Ġsh all
0 4
rif ten
Ġlo ad
Ġver h
ĠR is
Ġc ry
Ġexper ts
3 9
Ġwe bs
Ġparticular ly
oh ann
kauf t
Ġbra ucht
Ġan gen
ĠAr chite
iti ative
ĠK or
ĠC am
al a
me hr
ĠS ign
Ġs od
ch mal
fe hlen
Ġr ichtigen
Ġgu ests
sch w
ier ungen
Ġshe l
ĠBe wer
Ġbott om
ap ers
Ġacc ommod
ie fer
Ġer war
ĠS un
Ġ3 00
l uss
Ġb ul
ĠPar is
ĠIde e
d o
Ġre asons
Ġra ce
Ġsp ring
w ers
Ġmind estens
ig s
ĠIn sel
Ġjewe iligen
v erein
Ġd an
Ġth r
ĠpersÃ¶n lichen
at ers
3 4
f ree
Ġupd ate
ĠK il
Ġimmed iately
Ġprodu ced
Ġcommunic ation
statt ung
ĠÃ¼ bers
ann en
Ġgleich zeitig
entr um
Ġdevelop ing
haus en
Ġs ustain
l aden
Ġa head
st ieg
ĠUnivers itÃ¤t
ĠK rit
Ġn immt
Ġstat ement
ou te
Ã¼s se
Ã¼n sche
ĠE ss
sch lÃ¤
t a
Ġsh ape
0 2
ĠEn ter
Ġste ps
ĠHe il
Ġb ow
Ġsol che
beding ungen
ant ic
Ġstand ards
ĠAut or
fl uss
ĠE ven
ĠW ort
atur ing
ĠInd ustrie
ĠPoliz ei
lo ok
e hen
Ġd ish
Ġpres ented
Ġl esen
ib e
mÃ¶ glichen
ĠIs rael
u hl
Ħ ¢
ĠH ig
ĠVer l
! !
ĠB ill
ĠS tellen
Ġr ent
Ġrelationship s
ound s
ĠTh anks
Ġw and
mit tag
ĠK urs
Ġf ram
Ġsp read
Ġr ules
ium s
Ġar g
ken nen
Ã¤nd en
ĠA p
Ġfin ished
Ġpat ient
ĠB ern
Ġ200 5
ĠM ake
ĠkÃ¶n nt
Ġse chs
Ġrest aurant
Ġchang ed
Ġt rou
ĠCont in
Ġhim self
or te
Ġwe i
ug s
ĠMe x
let te
ĠDeutsch e
Ġpe ace
ĠL ou
ĠJ ournal
Ġ @
ĠMit te
Ġwh ose
ĠK rie
ĠH ann
ĠEr d
Ġse ven
ĠP op
it ude
b ody
Ġze hn
we gung
is tet
Ã¼ lt
Ġorganiz ations
Ġspiel t
Ġeven ing
Ġfor ms
lau ben
k arte
ed s
ĠerklÃ¤r t
Ġw ert
Wh ile
st a
bl ing
ĠMÃ¶ bel
hÃ¤lt nis
D A
Ġpos it
Ġprim ary
Ġsit u
G r
Ġind em
ĠverfÃ¼ gt
ĠBo x
Ġbet re
ub s
Ġsm ooth
Ġhe avy
Ġl aut
Ġbek ommt
Ġconne ct
Ġ ;
Ġver Ã¶ffentlicht
Ġcover ed
il den
Ġnum bers
r ument
Ġaus gew
h es
Ġp roud
ĠÃ¼ber n
Ġ3 2
3 7
Ġmil es
ĠVol ks
ĠG as
D urch
Ã¤n gen
ĠPriv at
Ġsh own
Ã¤l le
ĠGes amt
Ġnear ly
St ar
ĠL ux
ke y
ĠA P
ĠW al
n ern
ĠPre ise
ĠF C
ĠFebru ar
ĠO p
Ġvisit or
Ġer reicht
pp ing
er em
z ip
ip es
Ġth ank
Ġbe quem
Ġg ern
Ġele ments
Ġg ather
ol ar
O b
pl ic
ĠBede utung
est yle
S te
w a
Ġst rug
s Ã¤tz
ĠJ o
Ġe at
Ġsay ing
Ġear lier
ĠT a
eh Ã¶r
el ten
ĠFor um
Ġb ist
ts eite
Ġman age
ĠBes te
Ġappro x
ĠG re
Ġbelie b
Ġart ists
Ġin tell
Ġcar s
Ġsub s
C he
â Ħ¢
D r
Ġsur v
r asch
find en
ĠL os
ĠVers and
ĠR iver
ĠF ire
Ġinstall ation
Ġstre et
ĠSch e
ĠBl ue
Ġw est
ĠSicherheit s
Ġges tellt
ĠAn forderungen
ĠSpe cial
aff t
Ġbe hand
Ġh il
Ġvis ual
he mat
Ġres erv
Ġs ession
ĠW ood
k y
ĠWebs eite
oll ar
ate ver
ersch aft
ob by
ĠGra f
Ġexpl ore
Ġjeder zeit
Ġbesch Ã¤ft
Ġsch reiben
Ġp al
Ġgew Ã¤hr
w est
Ġcan cer
k ir
ĠSc ience
ĠHer bst
v on
ol es
id ers
Ġcomp rehens
ĠE p
Ġher z
ed y
ĠSt Ã¤d
Ġh ospital
ĠHerstell er
Ġso gen
Ã ĸ
Ġs em
ĠAd d
3 1
4 6
Ġges etz
Ġbegin nt
Ġbut ton
Ġsch Ã¶nen
Ġpa id
ĠR oll
ĠJ ose
ĠI ll
vers e
Ġn ames
ĠLeist ung
war en
iel le
I A
z ert
ze igen
Ġn atÃ¼r
Ġdi agn
Ġon to
ĠF Ã¼
d own
Ġw ichtige
Ġexc iting
Ġc entral
ĠK Ã¼nstler
Ġd adurch
Ġcrit ical
ri age
Ġclass es
Ġmult i
ĠW ander
ĠGe h
Ġf rÃ¼h
Ġhus band
ok er
Ã¶ff net
em p
ar ge
ter m
ver lÃ¤ss
on en
t ritt
k ur
ĠPro v
Ġtra ffic
F l
ĠFre izeit
Ġrele vant
ĠS emin
is her
Ġlo ck
Ġlie be
ĠA M
ĠTra um
er o
ĠÂ §
Ġincre ased
imm el
ong ress
Ġappropr iate
ĠFest ival
Ġhand le
unter nehmen
Ġwebs ites
al ent
Ġwelt weit
ĠMe ister
Ġt ag
Ġk new
Ġmov ed
Ġnumer ous
is ode
vel y
Ġunterschied lichen
ie fe
Ġcoun ter
ĠW ord
ĠL ake
Ġlead er
ĠHoch zeit
Ġr out
Ġend lich
ĠUn ser
ĠLink s
be g
k et
Ġvo ice
ĠP ack
ĠRe v
Ġum fass
Ġcol our
Ġsele cted
Ġill ustr
ĠF rÃ¼
ĠD inge
Ġt ree
ĠGesch mack
gew Ã¶hn
Ġal though
ĠL ear
ver band
ĠTw itter
ĠR oman
Ġer k
v ersch
Ġph il
ist ik
Ġol der
w rit
Ġres ist
Ġth reat
Ġst ick
ĠW ahr
ĠVer antwort
Ġro of
ĠStr ateg
ĠT im
ĠB und
ien cy
Ġsoc iety
ĠU l
ĠR oy
Ġcom ments
fre und
ĠDevelop ment
Ġentwick eln
ĠÃ¼ber haupt
Ġco ach
ĠSt ock
k r
ĠFre ude
ur m
h ende
Ġperson en
ĠRei he
z if
sch rank
Ġhe ut
l assen
Ġsh ared
ĠO der
eh men
Ġtra gen
akt iv
g art
ĠEle ct
S C
men te
Ġviel fÃ¤lt
Ġmov ement
Ġreg ional
4 7
ĠPolit ik
Ġ )
Ġsch affen
ĠIn nov
Ġtrans l
Ġf ahren
fr ont
Ġfab ric
Ġc as
ĠF ood
os sen
ĠSt rand
Ġent sch
ĠLeist ungen
Ġp assen
ĠfrÃ¼ her
Ġaus schlieÃŁlich
Ġsh ot
ess ions
Ġhervor rag
Ġcharac ters
Ġgu ys
ĠDet ails
ist an
Ġmay be
ra u
ĠS y
if ts
ĠMan ager
ĠE vent
ĠF ried
ĠAfric a
w ell
ĠT ar
ly mp
ĠAn y
ĠChe m
ĠFrank furt
Ġf ill
ic on
an lagen
ĠT ipps
ĠP rom
Ġar ch
Ġmain tenance
Ġatt ach
ĠC all
ĠL ight
I ON
ib el
Ġsp l
ĠD at
av en
ĠRest aurant
ad ies
Ġh Ã¤lt
or a
tem pt
Ġb ald
T M
Ġb reat
r d
fol gen
ĠArbeit en
Ġg esehen
Un ser
ĠH om
ĠGew inn
v an
ĠQ ue
ĠD ich
Ġwichtig sten
Ġal one
ab end
ak ed
r ant
h ilfe
Ġl Ã¤
ĠT on
ĠZ us
d a
Ġm ill
ĠA C
ĠTran sport
Ġtalk ing
Ġproper ties
ĠR hein
ĠOrig inal
s am
Ġass ign
w ise
ĠGerm any
ok al
part ner
ĠSen ior
ĠW ater
ra in
ĠM ary
Ð »
Ġsched ule
r ik
Ã¤ her
Ġf le
Ġfin anz
bereit ung
ĠP flanzen
F e
pect ive
int age
Ġent hÃ¤lt
ĠBen utz
ĠD ein
Ġn ied
ĠChin ese
ĠKir che
ie ÃŁ
Ġbe ide
tra gen
S V
ot ic
ĠE st
Ġc atch
w ing
Ġadj ust
ĠL ust
Ġer leben
Ġalle in
ĠF und
Ġc it
re in
Ġt ruck
man agement
Ġf ish
sch ung
Ġf an
Ġpl enty
Ġgreat er
ĠA ccess
ĠE uch
Ġadvant age
Ġpay ment
ĠSp rache
Ġfollow ed
gel d
ĠIn tegr
Ã¤m lich
ĠLe ute
cre te
Ġve get
Ġrequ ires
ĠBet riebs
ĠAn gaben
ĠHal b
ĠOr d
ĠFol ge
Ġc overs
k raft
Ġ ?
Ġdr iver
Ġconne ction
or al
Ġr ank
ĠHa ar
verstÃ¤nd lich
Ġsh oot
ac ity
ĠFlor ida
ĠC re
ĠwÃ¼r den
Ġcateg ory
z iert
Ġer h
Ġs yn
Ġhelp ed
ay er
ight ly
Ġsh aring
Ġher r
Ġorgan is
at ively
pf licht
ĠM ail
Ġf uck
Ġgen ug
Ġw Ã¤hlen
Ġm is
ĠM ethod
Ġinc or
ĠÂ £
Ġlo vely
Ġb ild
ĠR om
ĠCour t
ĠBÃ¼ ro
ĠS Ã¼
er weise
ro ck
ĠE ind
Ġgener ally
Ġsong s
ade zimmer
Ġam b
ĠMet all
gen er
Ġj ungen
ĠAut om
sch t
Ġen able
ĠSt ad
Ġsub st
Ġnot ice
att form
or ation
Ġstor es
Ã¤n gt
Ġpersonen bezogen
ĠM os
ĠAn bieter
Ġaltern ative
ĠJ ohann
s a
ĠVer arbeitung
ĠTer r
gesch ichte
âĢ ¢
N A
Ġum fang
ĠAc adem
ĠT Ã¤t
P r
ĠRo bert
v ollen
b our
cl es
s ystem
ĠgroÃŁ er
ĠVeranst altungen
D u
N o
ind ern
Ġwar um
Ġsen ior
G er
ner stag
z ess
Ġvis ion
Ġd aughter
ĠmÃ¶glich st
ink en
ĠAnd re
u a
a per
Ġlo an
Ġde te
ĠThe ater
D o
ĠLeist ungs
Ġehe mal
Ġbig gest
Ġteach er
b ad
omb in
H ere
E G
ĠCh ild
part ments
ier n
c raft
ir ts
f alt
lichkeit en
Ġthe me
ent ur
sp ir
leist ung
Ġopt imal
Ġlook ed
Ġcompet ition
Ġfl at
Ġcor ner
i h
ĠW omen
Ġpl astic
ĠCl ick
Ġne uer
ĠD oppel
hol z
Ġafford able
Ġfant astic
ĠMon ate
Ã¤ ten
Ġhil ft
ig em
ĠR at
ĠKon zept
Ġbe wer
Ġw under
ro wn
Ġto lle
zeug t
Ġent scheid
Ġfact ors
Ġgel ten
un ately
Ġmed ium
ĠhÃ¶ her
Ġexc ited
ann ed
Ġsch eint
ĠSer ver
or ben
om eter
Ġop in
Ġsel ten
Ġser ver
Ġlar ger
ĠBl ut
Ġinst ru
Ġte en
Ġsex y
os is
Ġa p
v a
Ġv Ã¶
Ġbefind en
ĠM eter
Ġdo ors
Ġeff orts
ĠS ince
ĠAt t
ĠBay ern
ree k
ie ll
zw ischen
wÃ¼r d
ĠMark en
ĠNutz er
ĠB row
Ġbr ings
Ġde partment
Ġresp ond
ĠW ohl
es is
cept ion
M A
k rank
Ġe ight
im inal
Ġd rop
ĠT at
uck y
Ġpres ident
ĠN un
Ġpl ants
ĠErgeb nisse
ĠF el
ĠMon at
zentr um
ĠFen ster
Ġsex ual
Ġra p
ĠSta ats
Ġs inn
isch em
reu ung
Ġgew Ã¼nsch
I R
erm an
Ġan ges
Ġer n
ĠÃľ b
g ruppen
ig lich
Ġing red
ĠH Ã¼
Ġpract ices
ĠE rot
Ġsc ene
Ġunter wegs
Ã¤hr ung
Ġmil itary
Ġcomb ination
m lich
p olit
Ġp asst
fl Ã¤chen
Ġbra in
Ġw rote
le te
Ġp air
ĠTra in
ĠAuf trag
n el
Ġad ult
I F
S A
pr ise
ĠGe org
ĠL eder
Ġst ream
ĠBed Ã¼rf
ĠL ast
Ġw es
ĠZ udem
Ġ15 0
ial s
Ġemp fehlen
ĠW Ã¤hrend
ĠVere ins
Ġp ul
Ġvisit ors
Ġcomm unities
Ġzw eite
ĠC entral
ess el
3 3
Ġdeterm ine
ĠL ove
ĠAd min
p ol
Ġp oor
ĠVer wendung
Ã¤ den
Ġl ab
ĠO ld
zahl en
ĠBÃ¼ cher
Ġcon temporary
sh ops
Ġvol unte
Ġa partment
Ġoper ations
beding t
Ġse cret
rÃ¼ cken
ĠLe ague
Ġbesond eren
Ġn Ã¤mlich
it ors
ĠK arten
ien ces
ĠTem peratur
Ġw ire
Ġj ew
ĠHinter grund
Ġoper ating
m iss
Ġsein es
Ġbest immt
Ġman ager
Ġweiter hin
ĠCh ic
ĠV ort
ĠK rank
ĠL ager
Ġmov ies
ist ischen
ĠP ak
ag og
ell a
Ġdis k
ĠWirt schaft
Ġt ask
pl ate
ger y
Ġa wesome
Ġs ter
de ck
Ġgen utzt
ĠV iele
ink s
ĠPe ople
ĠKomb ination
Ġd rug
Ġt Ã¤t
ĠKommun ikation
r ical
ĠP il
imm ing
Ġcop y
ĠA N
Ġbuy ing
Ġn orm
se c
anc en
L C
à ¤
Dies er
tw och
ĠMont ag
Ġsh ower
Ġp ull
U T
en se
Ġi P
Ġg ran
Ġha ven
Ġcour ses
ĠAb schluss
Ġwa iting
P lease
D R
Ġform at
Ġgesam te
Ġaus d
Ġcor porate
Ġengine ering
I s
p re
ĠWie der
ann ung
fl ug
os met
Ġj ournal
Ġgu y
Ġdeta iled
Ġvor bei
ĠWochen ende
Ġoff iz
Ġres idents
gel n
Ġcomp ared
ĠW Ã¤r
Ġt aste
Ġtest ing
Ġre ality
Ġdan ach
Ġex ter
Ġb illion
Ġbecom ing
Ġbra uchen
ĠSt off
ĠG ame
Ġfor ce
Ġfl u
ĠTe le
ĠN ote
Ġele gant
Ġant i
or ient
ĠF er
Ġindepend ent
Ġc ore
h ere
Ġwel cher
w ord
or row
n ot
ĠErw achsen
Ġr uh
sch au
ver kehr
Ġqu arter
Ġra in
ĠGespr Ã¤ch
Ġtra ding
z ul
is l
Ġpla ced
Ġinform ieren
p ers
Ġat tempt
ĠG rad
Ġbelie bt
Ġcomprehens ive
ĠRep ublic
Ġf ear
A cc
Ġprep ared
ĠK rÃ¤
ĠSp r
ĠAt l
ĠBereich en
ĠNet work
ĠH ans
ĠWissen schaft
ĠAd v
ĠM ach
Ġclick ing
Ġver antwort
Ġupd ated
Ġindustr ial
B y
7 8
est ic
4 4
Ġse a
laub t
Ġobs erv
ĠR ab
Ġ4 8
w ig
Ġfoot ball
Ġinsp ired
Ġtr end
Ġprinc ip
St ud
Ġtop ic
z ent
Ġle b
Ġdist in
Ġallow ed
lig a
Ġm ail
Ġaud ience
z Ã¤hl
ĠIn n
ĠOn ce
c ause
zep te
Ġsee ing
ĠVers icher
Ġbest Ã¤t
Ġin nen
Ġrad io
Ġsh ap
Ġarr ang
Ġsn ow
ĠLÃ¶s ungen
ĠP fer
ĠSt il
H ome
Â ´
ĠGeburt stag
h ause
Ġn ah
ĠH ill
ĠR en
iel t
ĠImmobil ien
br igen
ĠK ons
E nt
! )
ĠPh ys
l ife
is co
ĠFre unde
Ġst yl
it is
ation ale
el ess
Ġis land
ĠP en
Ġeinges etzt
Ġver tra
Ġdes k
ĠP osition
Ġfem ale
Ġdesign er
Ġv en
b ilder
ĠQual itÃ¤ts
ĠgÃ¼nst ig
Ġexpert ise
ĠAn wendung
Ġkeep ing
ib li
ĠT ick
5 00
ĠC y
utt gart
ĠH on
Ġopen ed
Ġse ctor
Ġlight ing
Ġp ush
ien te
ĠAn zahl
Ã¼r en
ĠtÃ¤ glich
ĠGe fÃ¼hl
Ġto ll
ĠHe ad
p ret
ig ungen
M od
Ġprof ile
oc ol
Ġregel mÃ¤ÃŁig
Ġausgest attet
y e
ĠC ustom
ff er
ĠV an
Ġstat us
p et
Ġan z
ma ÃŁ
und ert
ĠR and
ĠRe view
ick e
Ġmin ute
Ġrem ove
ur ers
Ġfocus ed
ĠgrÃ¶ÃŁ ten
ĠCar ol
Ġs at
ĠCol or
ĠL ong
Ġteach ers
Ġear th
fe ct
Ġgew esen
Ġfunktion iert
Ġra re
gra de
Ġsepar ate
ĠSt ruktur
Ġwind ows
Ġdie t
b as
Ġsh ipping
ber ger
ĠMon aten
c oin
uss ion
ĠP unkte
Ġpack age
Ġf ach
A B
n ungen
Ġbes tellen
ĠTra dition
ell o
ĠOr ts
piel t
Ġchang ing
Ġes c
Ġp ow
enn ung
zen s
chn et
Ġspe ct
Ġr at
legen heit
F rom
ol z
ĠGes etz
ĠEd el
ĠEntscheid ung
Ġl ights
ĠSp ring
Ġg one
Ġdire ction
Ã¤uf er
The y
Ġde als
ĠM and
Ãľ ber
Ġtats Ã¤chlich
ĠD ata
Ġfre und
Ġletz te
g ment
Ġprocess es
Ġers tellen
iz z
Ġdist ance
ĠB ett
Ġgesam ten
S pe
h ost
Ġber uf
ches ter
Ġnov el
bie ten
Ġ200 4
ĠU se
ĠDes halb
Ġk ombin
Ġart icles
Ġk id
ĠauÃŁer dem
Ġcommit ted
ĠB io
ild ing
Ġnach halt
unk el
Ġsym bol
ic ians
Ġlaw s
ĠKre uz
Ġer mÃ¶glichen
m aterial
form ance
C D
ent liche
st ar
ill en
Ġtrans form
ĠVal ley
ĠRad io
ĠTerm in
ar io
Ġsatis f
Ġ7 5
Ġin n
Ð º
Ġkn app
w art
Ġd omin
Ġpain ting
Ġo ber
ĠTra iner
s ie
ĠDistr ict
Ġbe ant
h i
V on
Ġfolg ende
ĠE t
Ġwund ersch
Ġpart ies
umen te
ĠPro te
Ġcent re
Ġpost s
Ġneigh bor
ĠWe iÃŁ
ĠverfÃ¼g bar
ĠBe zug
Ġev idence
g ende
au p
Ġs ample
Ġverste hen
S he
Ġfig ure
ĠAuf gabe
Ġhtt p
Ġinc ome
wo hner
Ġaut o
ĠBe im
Ġ3 8
W el
r ast
b i
Ġbr ight
6 5
uz z
zus tellen
Ġk inder
Ġlim it
g ern
Ġar en
Ġdis app
ĠPar te
ra p
fÃ¤h igkeit
ĠG ut
ab ilities
Ġdo ctor
sÃ¤tz lich
im ens
ym n
Ġc ities
Ġent scheiden
C on
ĠC la
g ien
Ġbal ance
m and
Ġs ources
ĠAr ts
ĠC O
ĠHe iz
Ġsuit able
ĠPro jekte
Ġdat ab
z te
ag ers
ĠO lymp
Ġihr es
unk ten
ach st
te ten
im s
ĠVerkehr s
tel n
Ġp ray
Ġpract ical
Ġer kennen
Ã¶l ker
ou ts
ĠC up
Ġse at
Ġacadem ic
al ian
G o
fol ge
ĠG utsch
Ġer ziel
Th at
for men
Ġle ather
Ġmem ory
ĠG lobal
Ġcre am
and a
Ġ !
it ts
it el
l og
ile t
il it
ul ated
Ġlearn ed
Ġwir t
Ġs elling
Ġcould n
Ã¼ss eld
ĠMo der
ĠExper ten
Ġcall s
Ġh yd
ĠG olf
mer ksam
icht iger
ĠA R
Ġfa ith
ĠB lock
ĠT yp
othe k
ĠbenÃ¶t igen
Ġloc ations
Ġshow ing
ĠTod ay
ool s
Ġadd ing
ĠM P
Ġer inn
k arten
ĠS n
zeich nung
ret ch
Ġspe ak
ĠGer Ã¤t
etz ungen
wer ke
B ook
ĠDon nerstag
mer ikan
un ction
ĠC ard
f s
ĠM ik
Ġanim als
Ġpass ed
Ġs ister
N ow
Ġauth ent
Ġqu ant
ĠInst all
Z u
ĠV ier
Ġact ual
Ġc e
Ġentste hen
ĠW in
w ald
mittel t
Ġwen igen
ĠIt alien
ĠvÃ¶ llig
er dings
Ġval ues
ĠCent re
geh end
Ġper haps
pro gramm
Ġrel iable
ĠO ther
Ġd ance
Ġgew innen
ĠFe hler
ĠD iv
Ġgr atis
r iere
ĠS oll
ĠGed anken
ate ur
ist ische
vers icherung
Ġexerc ise
ĠBe aut
e en
Ġemot ional
cre en
Ġzahl reichen
iz iert
ĠComm ission
Ġspezie ll
il i
ĠSec urity
Ġsc ore
Ġgem Ã¼t
Ã¼r t
kt op
ĠA L
Ġle gen
Ġwalk ing
aut en
br uch
Ġthere fore
or ie
Ã¶ ÃŁen
Ġkein er
Ġstrateg ies
ho ben
Ġdam als
Ġtick ets
a e
w esen
ĠB is
U p
ester day
g ent
ĠC ode
Ġeconom y
fass ung
ĠM obil
Ġtr uth
ĠW hether
l ight
ĠKlass e
ste chn
ling en
kl us
Ġveh icles
Ġabsolute ly
ziel le
b orn
on ym
ĠFran c
ĠM att
Ġlux ury
Ġyou th
if er
Ġapp oint
ran s
lÃ¶s ung
r ick
Ġerwar tet
ĠJ ung
Ġident ify
Ġerforder lich
re pr
Ġleaders hip
ĠTechn ology
ĠPorn o
ĠIn halt
Ġver gleich
Ġbus y
Ġtrotz dem
V ers
201 6
ĠN r
we chs
Ġfind e
Ġr ub
ĠL ab
ĠSer ie
Ġcover age
Ġinspir ation
Ġserv ing
Ġstar ts
Ġf ro
Ġhelp ful
ĠMark et
b ett
w al
ĠZust and
all s
p fle
ce an
ĠP unkt
Ġc ultural
ĠM erk
los en
Ġfind est
Ġgen ommen
Ġ0 1
Ġmark ets
ĠVer m
ĠHeim at
ĠI ts
ĠUm gang
Ġrecord s
ĠA ward
Ġmitt lerweile
r ang
sch riften
Ġas pects
Ġconne cted
ĠMaterial ien
ĠHig hl
Ġt on
ĠGer Ã¤te
u ern
Ġl es
ĠGesundheit s
Ġflow ers
l ist
Ġele ment
Ġextens ive
ĠV iew
kn own
ĠÃĦ nder
f amil
ĠK enn
Ġle aves
go ing
Ġeduc ational
4 3
ĠMed ical
ĠG ames
us te
Ġun its
T C
ĠGe f
Ġag ree
w ater
Ġb rief
fol io
Ġdoc uments
ĠO h
reat ive
Ġfra me
ĠPol y
ĠPlan ung
Ġenvironment al
Ġu t
ran ce
Ġstud io
Ġn Ã¶t
Ġwatch ing
mosph Ã¤re
ĠT own
ĠE he
Ġwo bei
ĠnÃ¤ch ste
Ġdar in
ĠSit uation
Ġer he
B es
ĠProf ession
or ter
ĠF ull
v ors
u able
f unktion
Ġfor eign
rom e
ift ung
ap os
Dies es
Ġke pt
Ġre ference
ĠT ime
ĠC H
ĠL ern
Ġcompon ents
ĠJ ew
Ġhappen ed
ogra p
Ġpop ulation
ĠProf essor
D on
ĠS ar
ĠWett bewer
Ã¼ck en
Ã¤hr t
Ġgu est
Ġpan el
l or
ĠK ampf
Ã Ń
id den
i ro
Ġc up
ĠProz ess
Ġsch lieÃŁlich
Ġan c
ger icht
ĠV ict
ĠGe orge
Ġinternational en
Ġoper ation
Ġvol ume
ĠAn meldung
ly wood
ĠC ra
Ġfil led
m und
Ġne ck
Ġhe ll
nd en
Ġal ter
Ġcontin ues
un s
S c
ĠH ot
b ing
Ġapp lied
Ġassist ance
Ġfe aturing
ĠÃ¶ff entlichen
ĠForsch ung
ĠVer Ã¤nder
Ġp urs
Ġunterschied liche
Ġmoder ne
Ġbecom es
ĠFamil y
D P
Ġknow s
ĠB M
Ġb ess
Ġjoin ed
Ã¤m t
Ġd inner
ĠZeit en
ĠFeuer wehr
ĠFunktion en
Ġschw ier
om pl
Ġdurch gefÃ¼hrt
ĠS at
Ġpol ic
end et
ĠBe h
ĠerhÃ¤lt lich
ub ehÃ¶r
Ġb ird
z in
ĠF eld
ĠKir chen
Ġpark ing
Ġher unter
R es
Ġb auen
Ġconven ient
Y our
Ġ200 3
ed om
en ken
tern al
Ġm ist
ĠBild ung
Ġenjoy ed
Ġwork ers
sch er
ĠA ff
Ġu k
ĠL iste
Ġrest aurants
ĠKategor ie
u ters
ĠD VD
ul ations
ĠUS B
Ġfav our
ĠFran ce
ik es
ges ellschaft
ĠprÃ¤sent iert
os ure
ens es
Ġa gency
Ġv ir
Ġseek ing
Ġtemper ature
Ġmoder nen
I E
Ġch rist
ĠUnter such
ĠMit twoch
ĠR uhe
Ġbrand s
Pro du
th let
qual itÃ¤t
Ġb urn
Ġwas te
ĠMed izin
ĠKÃ¼ chen
ur a
Ġbe f
och ter
Ġsh ip
T E
wer te
apt op
P C
o ted
ĠC at
ĠE qu
ĠGesch enk
ĠFound ation
ĠCh ance
Ġvisit ing
m mer
Ġc ivil
wissen schaft
Ġber aten
Ġkle iner
ut ing
Ġj u
bar er
Ġa ware
Ġgen annt
ĠSchweiz er
Ġcell s
w s
Ġunivers ity
haf te
Ġl ose
ut y
Ġdiscuss ion
Ġperform ed
p unkte
ĠPro ject
ers eits
ĠSp rach
Ġl abor
ĠAn spruch
ial og
ur ies
r t
mer zen
Ġcap acity
ĠD ou
iqu id
ĠWer be
ĠSchl ag
ĠTh ank
Ġer ster
Ġgener ation
ph ones
Ġtechn ologies
Ġclos ed
Ġsod ass
zen e
Ġprom ote
ĠE is
e ch
Ġgleich en
Ġpro s
b aum
Ġl Ã¤ng
Ġo d
Ġw ider
ĠB it
Ġestabl ish
ĠbenÃ¶t igt
ĠStud io
Ġ ice
ĠProdu ktion
Ġt end
s st
ĠÃĸ l
) ;
4 2
ã Ģ
Ġbro wn
ĠS inn
ĠGes icht
Ġdenn och
8 5
ĠAn s
Ġst ain
Z um
ĠM ov
ĠAn schluss
ĠSchlaf zimmer
- )
Ġmehr eren
Ġrun s
Ġflex ible
ĠK ore
ul en
ĠH unde
ĠK redit
ĠRÃ¼ck en
itte e
Ġfac ility
Ġgebra cht
inter est
Ġr ide
ĠWe ek
u ert
Ã ³
ĠS ort
et enz
ian o
Ġsw itch
Ġc art
Re g
Ġprov ider
w eder
bet rieb
if ik
Ġfl ight
ĠGar den
ĠG anz
Ġad ults
Ġh ers
Ġst one
Ġun bedingt
Ġzie hen
etz te
h us
ge hÃ¶r
Ġha us
Ġper man
ord net
Ġbe achten
st all
onst ru
ĠS Ã¤
Ġpr Ã¤
Ġautomat isch
ĠUnter richt
ĠMark e
ĠpersÃ¶n lich
ĠM obile
Ġmar ried
Ġ5 5
Ġcou p
v iel
Ġperfe kte
Ġch amp
Ġman aged
lie ben
ĠBro wn
4 1
Ġdie d
Ġthough ts
ĠN atÃ¼rlich
ik ing
Ġindivid uelle
al er
ĠF ur
ĠLe ip
Ġb ought
Ġcaus ed
ul ate
s eite
ul d
ĠEr satz
Ġtop ics
m d
Ġapp s
men ted
Ġt ief
gest altung
Ġtre es
Ġverbess ern
ĠL Ã¶
Ġsp rechen
ic ial
ĠH en
Ġf rag
Ġer reich
Ġzuf rieden
iz er
ha fen
el er
Ġr ing
ze hn
ĠWh y
ĠK itchen
Ġzie mlich
Ġallow ing
ĠWe ge
Ġdec ide
Ġworld wide
ch em
Ġle aving
k la
ĠNach richten
ĠKe y
ruct ure
ĠSpiel en
Ġhin zu
Ġaud io
us ted
fÃ¼hr en
ĠW a
inz ip
ĠM orgen
ĠV ater
rÃ¤ ume
f an
Ġbege ister
Ġbirth day
ĠMann schaft
Ġr ental
Ġf ederal
c ious
Ġteil weise
le ucht
ag ram
Ġde fe
ĠP S
Ġme ant
M ark
L AN
Ġex change
ĠW estern
fl Ã¼
stand s
Ġs au
Ġhon est
Ġpre is
or ia
Ġze ich
m Ã¼
Ġcontin ued
n o
Ġwen ige
ĠR icht
ohl en
heit s
Ġm ut
Ġcomb ined
ĠS C
Ġentsprech end
Ġprevious ly
Ġsh oes
ĠBed arf
ĠChic ago
Ġpartners hip
Ġs am
Ġl ibrary
A ut
ĠB Ã¤
ĠGrund lage
ĠF ert
Ġinj ury
ĠSupp ort
Ġimport ance
ĠL ord
ĠC EO
Ġ ign
Ġed ge
ĠF air
g le
Ġob vious
Ġled iglich
Ã¤nd ler
Ġe ating
sp iele
Ġh off
ĠAl though
ers ey
Ġpass ende
Ġc row
ĠRo om
ĠS inne
ĠF a
um ps
ĠMin i
Ġaccess ories
Ġunterschied lich
Ġcomp ar
Ġbes uchen
ĠZw ischen
ĠS ound
E very
Ġm ental
e per
Ġw inning
O W
ond ition
ger Ã¤te
L A
Ġl angen
ĠSon ne
mer k
Ġkomm enden
ĠMaÃŁ nahmen
o z
ĠSp orts
enn is
ĠSt ore
ĠNetz werk
ĠZeit punkt
hab er
ic ian
Ġth row
aus o
ĠKa ffee
Ġzum indest
Ġcabin et
Ġzu verlÃ¤ss
Ġun abhÃ¤ng
ĠT anz
ĠElekt ro
Ġle gend
im p
Ġum s
Ġun c
ĠBe cause
ĠHa ft
Ġf ot
P A
Ġ Ã¤lter
ĠB onus
ĠBe z
Ġgesch rieben
Ġf ein
Ã¤d t
ĠSoc iety
Ġeval u
ĠH off
ult y
hab en
Ġmax im
ind e
Ġsch war
G et
Ġapprox imately
ocol ate
Ã¼ hm
Ġfra uen
ĠWirk ung
ĠS onder
bild ungs
ĠInter ess
w as
Ġintrodu ced
geb aut
wei ÃŁ
Ġans wers
p ap
Ġexam ples
Ġh ook
Ġcl oud
b ringen
Ġt ail
Ġ4 00
I nd
r iff
ir n
ĠUms etzung
ĠlÃ¤ uft
Ã¶ tz
oun ted
ĠKle id
D en
ick er
ĠVer d
Ġingred ients
ie llen
sp rache
ĠF ore
Ġoccas ion
Ġinst alled
Ġdemonst r
Ġst yles
ĠHe ute
Ġl au
Te chn
Ġfall s
igh ted
ĠkÃ¶nn ten
ĠE dition
Ġzu vor
Ġspecific ally
Ġchem ical
Ġn or
Ġmar riage
5 5
w ith
Ar t
ĠOrgan isation
kl asse
Ġcompet itive
ĠW atch
Ġwh atever
Ġf Ã¤llt
ĠJ ud
ĠMo dern
r id
Ġmost ly
ĠEU R
Ġacc ident
el ing
Ġfun ctions
lie b
a cc
Ġdis p
ĠP R
reat iv
ĠP la
ig ration
Ġwir kt
ian a
ĠGem ein
t d
ge geben
ĠContin ue
Ġco ast
ĠV en
Ġr an
ĠAngel es
ĠFÃ¼hr ung
mitt lung
ler nen
ĠK ern
Ġhapp ens
Ġs izes
ĠV it
ĠLou is
Ġgar age
ĠBed ing
J Ã¤hr
ĠG rÃ¼n
Ġd ru
ĠInter view
lad ung
Ġres ource
Ġadvert ising
z we
u led
ĠFr ont
ru pt
ĠJapan ese
Ġarbeit et
el ine
ĠC ou
ĠSt ahl
Ġprep are
ĠMom ent
ĠGovern ment
Ġto ward
ĠKn ow
Ġwissen schaft
Ġbehav ior
ĠS qu
ĠD orf
ĠF Ã¤h
fra gt
Ġg rÃ¼
ĠD okument
Ġacc ompl
ach te
wert ungen
ĠV arian
at re
Ġrecommend ed
Ġphot ography
Ġer gÃ¤n
Ġpriv acy
C ont
Ġt ut
ĠSt unde
ĠEink auf
Ġde ck
Ġvar i
i agra
Ġcolle ct
ĠChamp ions
Ġdescrib ed
schein lich
Ã¤d agog
ĠN Y
ĠVer fahren
Ġter r
Ġsmall er
tern oon
o ice
sel ves
Ġqu iet
ik i
Ġd anger
C A
mit glie
201 5
eth ode
ĠKÃ¶n ig
Ġelect ronic
Ġor ient
Ñ ĥ
Ġnot es
ne iden
ĠTe ile
k omm
Ġch arm
Inter ior
Ġappear ance
T A
ĠZ usch
Ġra ised
ĠRe ich
ĠWeit ere
Ġman chmal
ĠRe port
Ġdar um
Ġsug ar
ĠK och
forder ung
Ġpres ence
Ġj Ã¤hr
ĠTe ams
ĠS ach
ĠIs lam
Ġerne ut
Ġsur f
Ġwrit er
um ber
K on
Ġm anner
ĠSing le
we ight
la ut
let ten
ul s
ĠAcadem y
Ġf allen
Ġm ale
ĠH of
le bt
st ahl
ow nt
N ot
Ġex clusive
er es
iz ens
il ien
Ġbreak fast
Ġlaunch ed
ĠE th
Ġmajor ity
Ġmen u
res p
ĠGest altung
ĠSt uttgart
Ġge kommen
l ast
Ġre pe
Ġ3 7
ĠT wo
achel or
ĠAuf ent
ĠPrÃ¤s ident
Ġfamil iar
g age
Ġsym pt
ew ork
r ight
ĠAm b
ĠC ur
ĠSc ott
Ġwirt schaft
ape ut
Ġdel icious
ĠDe v
ĠAl ters
Ġsound s
ĠB ot
on om
Ã¶ se
fort unately
ĠComm ittee
er klÃ¤rung
ig an
ing t
Ġemer gency
de utsch
aus piel
l ers
or b
arch ite
Ad resse
ar zt
ĠBe k
ĠMot iv
ĠM aschinen
ic ip
Ġval id
iert es
ĠP ot
Ġ3 3
Ġkle ines
C O
S ome
ĠThe ir
Ġmention ed
Ġwor ry
or ney
ĠSie g
ĠBe ge
Ġg ay
ĠSmart phone
ed en
ĠSch le
Ġentde cken
fen se
Ġs icht
Ġa cht
ĠB or
Ġsp ons
Ġkosten lose
Ġappear s
Ġrem ains
duc ing
zahl ung
Ġenh ance
Ġ3 4
ĠM ie
ĠUr s
ĠDien stag
ĠgewÃ¤hr le
ont o
ĠJ ava
Ġcomp la
ĠUnd er
igen ce
Ġintern al
ĠC lin
Ġagre ement
Ġany where
ĠHum an
Ġrec ipe
ĠMod elle
Ġmax imum
ĠDan iel
Ġconc entr
cl ing
Ġhe i
ĠCon ference
Ġdi am
ograf ie
ad ian
te id
opp ed
ĠTher apie
Ġgarant iert
m aschinen
od ies
ĠÃ¼ber nehmen
Ġm outh
Ġk it
Ġfe e
Ġmanufact uring
Ġcomp l
Ġvers uchen
Ġsie ben
S E
ĠS ache
Ġentsprech enden
Ġbestimm ten
gen cies
er al
Ġexp ensive
Ġpolic ies
Ġsurround ing
S L
ĠBe weg
Ġprocess ing
Ġeing er
ĠF ab
Ġer f
Ġide en
w el
Ġindivid uellen
Ġzu letzt
ĠSP D
ĠVor auss
C omp
Ġest im
ĠW Ã¼r
Ġer ot
ord ers
Ġsc ale
a ub
Ġp m
ĠC onst
Ġj ump
Ġhochwert ige
ĠD aher
Ġv s
p flege
Ġerw eit
Ġdis s
Ġerw arten
ĠP M
Ġander er
ĠFrank reich
ĠI D
Ġan imal
fÃ¼ ll
Ġj ack
Ġcon crete
Ġch airs
ĠKl assen
p o
Ġ iron
em e
Ġk la
ab s
Ġsur vey
k omp
Ġs org
ief el
ĠChar akter
ĠW ass
ĠL ibrary
Ġlead s
end ung
ĠBe griff
Ġ0 8
Ġdes ire
Ġentertain ment
Ġmittel s
repr ene
ĠIntern ets
ink el
ĠInform ations
hr t
ĠS af
Ġde inen
Ġaus reich
des ign
Ġsp ending
Ġdec isions
Ġproper ly
ĠAus stellung
ĠAfric an
P art
c ar
Ġent gegen
Ġsign s
ĠFahr rad
Ġb ere
Ġread ers
6 8
Ġst unning
ĠAn frage
ĠC ross
isch ung
ĠZ ubehÃ¶r
Ġd oll
ĠKar te
ĠM as
Ġv illage
ĠT iere
or et
ĠW ider
Ġadv ance
os it
Ġf ruit
Ġte a
het ic
Ġneg ative
an i
ber atung
Ġshow ed
ver fahren
ĠF ans
Ġup coming
ĠSt Ã¤r
app y
nis sen
9 8
ok rat
Ġnotwend ig
Ġgu ter
ĠFrÃ¼h stÃ¼ck
Ġse qu
ĠMed ic
od ay
n itten
Ġfund s
ro ad
Ġwe chsel
Ġv oc
ri x
ĠS ystems
stÃ¤nd e
ĠBe wegung
un ting
ang es
ste uer
S G
kle idung
d r
ĠAr zt
Ġverl oren
ĠS earch
end ar
Ġbe teil
ĠStand ort
Ġlog o
ĠP o
al z
rie be
Ġse ien
d am
Ġk ennt
Ġspec ies
Ġwar ten
Ã¼ ten
Ã¶r ter
ĠC ert
Ġz entr
ier end
ĠAng st
p asst
ĠOut door
gl as
ĠH Ã¶r
ĠL Ã¼
Ġn Ã¤her
wor tet
Ġ id
Ġconcern s
ĠPap ier
Ġv ent
leit en
Ġregister ed
Ġrap id
Ġgreat est
Ġaf ternoon
k ra
ĠS achen
ĠAll es
ĠMein ung
at o
ĠC a
ĠViel zahl
ĠSm ith
Ġencou rag
Ne ben
igkeit s
Ġfield s
m ot
ĠIt alian
ĠZ entrum
Ġtyp ically
Ġdog s
zÃ¼ glich
ger Ã¤t
Ġ1 20
ĠLin ie
p rech
ul in
Ġander es
ber n
C ar
ĠW i
Ġtot ally
b us
Ġb ound
olog ische
Ġmin i
e f
co hol
Ġcho ices
Ġcal cul
ĠK ol
Ġpl ays
ĠS atz
Ġl ag
lin ien
Ġcut ting
ĠLebens mittel
ĠT ake
Ġeing esch
angeb ot
Ġb ran
Ġeng ag
k an
Ġbatter y
z z
Ġj Ã¼n
Ġbuild ings
Ġbet roffen
Ġn u
Ġdatab ase
Ã¼ se
ĠF ac
ĠF isch
ĠB alk
alt y
j en
ron om
ot ten
ĠNach bar
ams ung
Ġcommit ment
Ġth us
ĠDe b
anze igen
Ġneighbor hood
or ial
ĠKÃ¼ hl
Ġbe zeichnet
Ġer g
ĠBest and
Ġsur gery
Ġhous es
Ġg lo
Ġin fe
j o
Ġj ung
as ks
ling e
mÃ¶ gen
ĠDesign s
ĠIn spir
Ġlands cape
Ġautomat ically
ĠHand y
fre ie
Ġrepla cement
S U
p ool
Ġer kl
ĠWe chsel
Ġ6 5
amm t
Ġ200 2
ĠpersÃ¶n liche
Ġpro p
ich ern
ĠLand kreis
ad ing
T ube
Ġk or
Ġsqu are
c en
ĠD ating
Ġkind s
Ġe gal
Ġther apy
: .
ĠF lo
ĠSo hn
ĠFle isch
Ġk rit
ĠIn t
st ru
il a
wirk ungen
ĠT imes
Ġd auer
Ġsl ightly
ĠSer ies
Ġges agt
cl ub
ĠA rab
orge ous
ĠVer halten
Ġnach dem
ĠKunst stoff
Ġprem ium
ĠA ktion
sch uss
hy th
Ġhundred s
Ġdeliver ed
ph as
grÃ¼nd et
ch ner
ĠAt mosphÃ¤re
ĠC ast
L ook
Ã¤l fte
ĠZusammen hang
ĠB ru
Ġsil ver
Ġk ick
Ġinfluen ce
Ġpur pos
v ol
Ġheut igen
erm ann
ĠD ub
ĠAll erdings
r ier
ra uen
ĠD uring
Ġunter s
Ġdiscover ed
Ġren ov
Ġmiss ing
Ġdistr ict
Ġrespons ibility
Ġgu ess
Ġbro ther
ul ous
ĠM ode
Ġworks he
ĠO s
Ġt rÃ¤gt
ĠprÃ¤sent ieren
Ġgood s
ator en
k urs
ĠF un
ĠÃľber blick
ĠFran z
Ġt ough
Ġs ad
ie gen
Ġgeb oren
Ġfeature d
g ner
Ġsign ed
Ġp ock
Ġv ital
Ġgu itar
us che
F A
Ġstar s
ĠRuss ian
cep ts
Ġpar ent
Ġher gestellt
Ġben ch
Ġf uel
ĠBerlin er
âĢ ĭ
Ġposs ibly
ĠEv ents
ign et
ĠCh air
stag ram
ĠR E
Ġcook ing
Ġ3 9
H S
l ings
in ations
Ġd ates
ĠVir gin
af Ã¼r
Ġupd ates
Ġm ort
Ġk ing
ĠZug ang
her r
far ben
Ġvers ucht
Ġpass enden
Ġe cht
ra chen
ĠH art
C hr
s burg
Ġm ent
ĠR ub
A ber
ĠW Ã¼nsche
lin ik
v as
Ġour selves
Ġend ed
Ġparticip ants
ed e
Ġvac ation
v it
Ġp ure
ack en
gem einen
ret t
Ġevery day
ĠD J
ike a
k rie
Ġw ichtigen
Ġres ume
Ġentsch ieden
Ġk amen
Ġdurch aus
m aschine
Ġus w
Ġphil osoph
Ġcl imate
Ġeing el
Ġsearch ing
Ġincred ible
m ut
Ġn ine
Ġpol y
ac ter
Ġverl assen
Des ign
Ġs ou
Ġw Ã¼nschen
d ers
Ġwall s
ĠT ri
ff iz
Ġthe ory
Ġar ts
Ġcl im
wer den
we ar
bo ten
Ġlif estyle
Ġocc up
ak a
Ġhistor ical
h end
Ġm ode
7 6
Ġch ain
Ġm obil
G es
Ġrep ut
oun ter
g or
is a
Ġgesch lossen
Ġf aster
e te
Ġp ump
ĠCl oud
Ġsit ting
v Ã¶lker
Ġde cl
k Ã¼nd
ing u
Ã¤r m
ĠEar th
ĠFall s
ut ch
Ġbring ing
ĠDe ine
mit ted
mer z
Q u
Ġth ick
waren ess
ĠCon ne
Ġadmin istr
i ability
ĠRe zept
Ġbeg rÃ¼
Ġv ibr
ĠAs ia
ad el
er ed
ĠSt ation
rÃ¤ gen
ĠRoy al
rech ts
ĠHer zen
rÃ¤ s
Ġeffic iency
f Ã¶rder
ĠAustral ian
Ġmit einander
Ġtele vision
leucht ung
ĠAn al
Ġvoll er
Ġfert ig
Ġwe aring
P ress
Ġact ions
isp iele
ific ations
ĠEngine ering
ĠÃ¼ber all
ĠT ochter
ĠAl bum
ĠF itness
ĠgroÃŁ es
Ġres idential
ĠN ied
ĠW alk
ĠJahrh under
rÃ¤n ke
ĠH aw
Ġpresent ation
is tern
Ġguarante e
p at
J ust
ĠWeiter lesen
Ġf icken
ro gen
Ġimpro vement
y an
oun ge
ĠtÃ¤t ig
w urf
ĠLiter atur
ĠEle ment
ĠOrgan is
Ġre ich
ĠA qu
ĠB ul
Ġgut es
je kten
haf ten
Ġp ink
Ġge ile
frast ructure
U M
Ġprovid ers
Ġmus ical
Ġput ting
ĠB ier
sh ire
ĠB adezimmer
ĠK ennt
Ġpre gn
ul pt
Ġp oll
ĠWÃ¤r me
ĠC A
it oring
z ern
iden schaft
Ġ Ã¤ndern
Ġdep end
ing ly
Ġval uable
Ġclaim s
ĠL aut
Ġers tellt
ri or
Ġfol gen
ĠZwe ck
Ġbeg ins
ĠChr is
rÃ¤n k
Ġkont akt
Ġst im
Ã¼nft ig
p ot
c ase
ĠAntw ort
abet es
v ier
Ġan schlieÃŁend
ĠE re
Ġfil ms
Ġfit ness
Ġl auf
ĠH ilf
ĠId ent
ĠK und
Ġep isode
Ġtr ends
Ġperfect ly
b ell
g esehen
i ors
Ġmach te
Ġlie ben
ĠD Ã¼sseld
ĠEr inner
ĠVerb esser
ĠL Ã¤ndern
Ġj oint
Ġadmin istration
te en
Ġb ike
em a
grif fen
Ġs um
Ġcre ation
ĠAss ist
et ime
Ġbo at
Ġd au
sp rach
Ġm ur
d i
Ġf if
P osted
Ġhe im
Ġgef Ã¤hr
Ġ200 1
G esch
ket ball
ost on
ĠÃĸff entlich
b les
Ġre icht
Ġw ann
amer as
ĠBeding ungen
och e
Ġc ult
ĠProdu kten
Ġdep ending
b al
Ġdec ades
Ġbeg ann
Ġgl Ã¼ck
ĠR ing
m ade
Ġsch rift
amp en
Ġm orgen
ĠH ospital
ig a
m es
Ġch osen
F C
ĠDar Ã¼ber
Ġb ilden
oin ted
Ġfeed back
k ret
ĠL as
ĠD res
Ġersch eint
Ġc red
ĠAuf bau
Ġf oll
hand el
ĠE igent
T oday
le hr
Ġpurpos es
T H
ĠJ a
Ġbis schen
Ġother wise
ĠFlug hafen
b oden
it Ã¤r
Ġgen auso
as p
c ode
ï ¼
Ġt ests
igh ten
Ġeinfach e
ĠSe ine
Ġn avig
Ġconf idence
Ġin tended
um es
ĠBe w
p oint
re ten
ern t
ot ton
ĠEnerg y
Ġherz lich
Ġex ecutive
yr ight
un ehmen
Ġpl ug
Ġbet rÃ¤gt
ĠReg ierung
Ġmin imum
Ġelekt ron
Ġbr ill
Ġreg istration
Ġzu k
Ġlie ber
Ġhotel s
m l
ĠGr ill
ĠDe ck
Ġlo ans
k unde
ĠL ow
Ġfil ter
to o
f Ã¤nger
Ġinkl usive
ĠH ein
Ġh all
Ġdes pite
Ġmass ive
P er
ĠAuf t
Ġhard ware
k in
ĠS amm
ib ilities
ĠverfÃ¼ gen
os ite
ĠW ol
Ġfran zÃ¶s
ĠB aden
ĠR Ã¶
ĠHand el
Ġg olf
F L
uss y
n ight
Ġy esterday
ĠA D
ffe kt
ĠM und
ack s
ĠEr lebnis
ĠSch u
ĠGe legenheit
an walt
umin ium
ĠS V
ĠTr end
ĠGesch ichten
le ct
Ġhol z
k und
meric an
ĠIde as
Ġv ary
ĠGren zen
ĠZeich en
Ġs ah
Ġmed izin
Ġmass age
ĠVor teil
Ġmy ster
ĠDienst leistungen
Z ur
Ã Ħ
bl ings
Ġ4 2
alt ungs
Ġencou rage
r in
Ġr ise
Ġclin ical
ob s
Ġscient ific
ĠF ass
Ġbo ys
ĠK art
igh ter
Ġin zwischen
Ġbe in
Ġleg isl
h an
sen s
Ġclear ly
Ġsupport ing
ĠT ax
Ġarr ived
ĠB ab
Ġdr ivers
ĠSchl Ã¼ssel
Ġwood en
Ġcelebr ate
B et
ĠF Ã¤llen
Ġout standing
Ġur ban
pl atte
ĠRe is
Ġcamp us
fil m
er er
ĠC ongress
Ġ2 50
ĠGott es
Ġl ust
9 6
ĠM ur
ĠÃ¼ brigen
Ġmeas ures
pf lich
Ġre lie
Ġst arten
Ġte lefon
Ġun er
Ġyou n
Ġhous ing
Ġdistrib ution
Acc ording
bl att
pl Ã¤tze
ĠVor teile
ĠI C
Ġc raft
uck s
Ġv ote
Ġopin ion
Ġaus z
ĠT el
Ġnear by
Ġste ig
Ġcon text
ĠHann over
in yl
Ġdig it
ĠP fe
Ġtra um
Ġrem ind
Ġqu otes
ĠD adurch
ĠVors itz
Ġ icon
ĠIn stagram
Ġs ides
Ġl unch
Ġin iti
Ġf ly
Ġum fasst
ĠSch on
F i
S ince
Ġex tend
Ġverg essen
lÃ¤ uf
ĠAir port
ĠSt aff
Ġbut ter
Ġsp aces
ĠBes onders
Ġges pe
N E
Ġbl end
ir l
ĠJahrh undert
u per
ĠD OC
inn ers
Ã¶rder t
Ġra us
lin ie
Ġf ellow
ĠPhil ipp
Ġpo et
ĠRich ard
ar p
ĠS ens
ĠStud ium
ĠB ang
Ġst retch
Ġst Ã¤ndig
Ġbeste hen
wohn ung
book s
spr ung
Ġsch m
or ough
ber ry
Ġvor aus
ĠEngl isch
ĠFlÃ¼ cht
ĠR ou
Ġpleas ure
c ap
Ġm a
fahr er
Ġconsum ers
ist ungs
Ġimpro ved
um st
ĠN E
ĠHand els
ĠLeip zig
ĠBild ungs
ĠC op
Ġun g
or able
ĠL td
a uch
age gen
h Ã¤user
ual itÃ¤t
Ġfe els
Ġl abel
Ġhost ing
Ġpattern s
Ġl it
ĠPer formance
Ġentste ht
Ġl ived
Ġsupp orted
Ġsecond s
r ors
ĠS um
Ġent weder
Ġparticip ate
angeb ote
Ġask ing
Al so
Ġarchitect ure
kt ions
ĠAn lage
ze ige
Ġrem ote
Ġwould n
Ġappro ved
en ke
Ġgro s
ĠVor der
Ġconsum er
g ro
Ġex t
Ġres ol
en zen
il st
ĠK amera
Ġges etzt
ter t
Ġge h
Ġown ed
Ġair port
p al
ĠEigen schaften
ive au
ĠR unde
Ġinter ests
ĠJ on
Ġ ille
Ã¶ ss
Ġequ ipped
m o
ĠR am
Ġverb ind
Ġ0 7
ĠMount ain
Ġd ient
Ġkur ze
ah nen
y ard
201 4
fra u
ĠTechn ologie
ik ations
Ġb onus
F re
Ð ²
athol ic
ank e
Ġun mittel
ĠL aur
Ġexpla in
Ġhtt ps
ĠKolle gen
Ġcon fl
ĠTe lef
g ut
Ġa id
fer nen
emb ly
Ġ0 9
ĠTro tz
ĠZ wei
ĠBl umen
Ġs ink
ichte te
Ġbel ong
Ġwill ing
Ġe c
x y
ĠE isen
ĠNe ue
it age
ĠEin fluss
ĠAktiv itÃ¤ten
Ã ¨
Ġreach ed
Ġaffe ct
Ġl aufen
Ġeffect ively
ĠCook ies
l Ã¤nd
ĠReg ional
Ġe ignet
S piel
H i
Ġmin or
hol en
Ġt ables
ĠZ ucker
Ġinnov ation
F irst
ar tet
Ġacc ounts
ĠhÃ¶ ren
Ġerst mals
K W
pro b
Ġph arm
ĠForsch ungs
Ġcare fully
Ġber ichtet
por ation
k ampf
r un
Ġn erv
ĠUn fall
f igur
Ñ ı
em ble
ĠHist or
ĠK ra
Ġgel ungen
at i
ĠC ost
Ġaus fÃ¼hr
Ġausge zeichnet
Ġab geschlossen
ĠKomment are
eind ruck
Ġklass ischen
z Ã¼nd
ĠZ iele
Ġag ent
Ġh ire
Ġte eth
iz za
Ġs amm
ĠT al
ĠS us
id ays
ĠInf os
ot ion
ĠÃ¤ uÃŁer
ograp her
ĠL eiter
ĠSchul en
Ġso fa
Ġa ges
te e
Ã¼ p
Ġbrow ser
Â ²
ĠT y
Ġs auber
Ġat mosph
ĠB oth
sch irm
Ġschnell er
ok us
Ġvor gestellt
Ġaccur ate
Ġp ed
ĠSe cret
ĠPrem ium
T r
ĠF lex
ĠMar ia
Ġporn o
re al
kt ive
Ġs essions
k k
ĠDis c
Ġcount y
ĠH an
olog ischen
v y
Ġm ine
Ġg olden
ĠEx ecutive
Ġex ec
ĠFor men
Ġverantwort lich
Ġvor stellen
ĠVer gangen
qu ality
Ġsch reibt
ver anst
Ġt ri
if ft
Ġdar unter
ĠPol ice
az in
anc er
Ġintegr ated
Ġver treten
us hed
Ġj oy
d auer
Ġt alent
z il
Ġent standen
bereit et
al and
Ġel imin
ĠSta at
Ġmount ain
ĠD auer
ĠN ight
ĠT un
Ġmag azine
ell s
iven ess
af Ã©
k al
l iste
Ġy ellow
Ġconst antly
Ġfund ing
Ġsp aren
Ġappoint ment
Ġr oute
Ġer laubt
ĠÃĸffentlich keit
ĠGener ation
ĠErot ik
ĠDe kor
Ġtra ined
ok es
Ġfe es
ĠAcc ount
Ø §
ĠÃ¼ber zeugt
Ġem phas
- /
M any
Ġmin imal
ĠKo operation
b ay
Ġf old
ĠK en
ĠB rief
ĠP enn
Ġpriv aten
Ġan bieten
Ġadvent ure
on ie
ĠFahr t
or ry
Ġc ute
Ġauf genommen
ĠZ Ã¼r
ĠYou ng
ĠInd ustr
ĠTrain ings
f angen
an aly
ĠEm ail
ĠL abor
Ġdisc ip
kun fts
Star tseite
Ġsympt oms
tra gs
Ġr id
Ġsp an
ĠChe f
ĠgrÃ¶ÃŁ te
um er
Ġbe ob
Ġeinz ige
ĠEng agement
Ġcloth es
ĠEind ruck
Ġdisc ount
ipp en
E A
Ġrel ativ
Ġmedic ine
Ġapprec iate
ft ig
Ġmach ines
ĠStud ie
ĠW ay
ĠL ike
Ñ ĭ
Ġfr isch
ne e
ion e
Ġs Ã¤mt
ixt ure
ĠRe chte
ĠKar l
Ġsupp lies
Ġad apt
Ġl aden
ial e
i ated
ĠF ant
er be
ein fl
Ver Ã¶ffentlicht
Ġre ag
Ġber Ã¼hm
ed u
ĠSchl uss
Ġb an
Ġorgan ic
Ġappe ared
Ġreal ize
Ġp or
iv als
Ġhe aring
ĠBes tellung
ĠFern se
Ġmonth ly
he ber
wh at
cle ar
ĠV og
Ġproced ures
ĠL ine
Ġausd rÃ¼ck
Ġr ies
ĠWar en
ĠZ uf
Ġmen sch
ĠCont rol
Ġn ative
ĠTeil nahme
Ġa st
Ġent hus
ĠGew icht
W est
kle id
es ents
ĠS em
ĠH ave
bed arf
" :
ĠSch loss
ĠA ben
Ġgew onnen
b ring
Ġreturn ed
Ġk os
ĠInd ivid
ck ing
w orth
Ġcaus es
ĠPubl ikum
Ã¤l te
ĠAd resse
Ġmus ikal
ĠAut hor
Ġw ichtiger
Ġ ikea
av or
ĠPers Ã¶n
c am
clud ing
ĠE conom
ĠPriv ate
ĠN ik
Ġproced ure
Be im
L and
ict ions
ran e
wh ile
ĠM ix
ĠB aus
Ġt ub
Ġh inge
wer ks
Ġentsprech ende
Ġden ken
ĠSil ber
ĠâĢ ļ
ĠP or
Ġme al
ĠStud ent
ĠGir ls
i ot
ĠhÃ¤t ten
Ġmil k
ubl ik
? âĢĿ
Sh op
Ġc and
ĠLe g
8 6
Ġkur zen
Ġsp richt
ĠGe ist
w in
el ly
Ã¤t ter
Ġcar ried
ĠD afÃ¼r
ro y
qu is
ph y
Ġrec o
Ġsp Ã¤t
Ġcloth ing
Ġerz Ã¤hlt
Ġpres ents
ert ifiz
ĠAus land
ific ate
Ġd ental
Ġra nd
il de
Ġstand ing
Ġcall ing
Ġv eter
Ġbestimm te
ĠBr ust
Ġtr ial
Ġr ule
ĠS ein
Ġsol chen
ĠCh ief
Ġwhe el
Ġed itor
Ġ: )
Ġlic ens
Ġcomp lic
ĠWill iam
cep ted
Ġmanufact urers
ĠMex ico
ĠEin sch
Ġsow eit
Ġple ased
p rechen
r ats
ĠSch auspiel
ĠA S
ram m
âĢ¦ .
Ġprin ted
Ġtem por
Ġge grÃ¼ndet
Ġt at
Ġqual ified
Ġp apers
ĠLehr er
ĠProfession al
w ich
ĠL Ã¤nge
formation en
Ġher um
ĠiP ad
Ġlang sam
ĠT hrough
ĠB ow
Ġmanufact urer
st one
Ġd ah
ĠSchwer punkt
hand lungen
schlÃ¤ ge
ĠEin richtung
m esser
Ġg ifts
Ġra ise
f Ã¤
ĠBl u
ĠÃľbers icht
Ġab gest
Ġgrund sÃ¤tzlich
Ġinstru ctions
erv ation
Ġshe et
Ġt ast
Ġhold ing
Ġident ified
Ã¼s sen
Ġr um
ĠSchn itt
ess ed
Ġcabin ets
Ġkomp lex
ĠN ag
ĠO R
aw ay
Ġu pper
Ġdisk ut
Ġob wohl
Ġofficial s
ĠWell ness
Ġcandid ates
Ġre ar
c an
Ġg orgeous
Ġc aught
Ġde iner
ir ms
hal le
ownt own
ĠP od
Ġfood s
Ġdom ain
v o
ĠSp itzen
Ġassess ment
re land
Ġrepr esents
Ġf Ã¶r
Ġsch auen
st al
ĠFÃ¶rder ung
ĠBedÃ¼rf nisse
ĠAnaly se
z ieren
D E
are t
ĠB urg
a at
Ġbe ar
ĠWh o
ĠL ein
Ã ¢
la w
g elt
Ġturn s
Ġselbst verstÃ¤ndlich
heim er
Ġverk aufen
Ã¤ sche
ĠSpan ish
ĠM S
ĠMar c
Ġmess ages
ĠfÃ¼ hlen
ĠW achst
un a
Ġwork shop
ĠP ac
Ġrem ark
ĠLie blings
Pro f
Ġemploy ee
Ġlie fern
Ġbro ken
Ġabsol ut
Ġk Ã¶rper
ĠN am
d urch
Ã¶ pf
ĠPart ners
Ġpro ceed
Ġfour th
Ġrecogn ized
Ġmin im
Ġsuccess fully
ĠÃ¼ber prÃ¼
Ġapp l
Ġconvers ation
b lich
v ements
im me
Ġra il
all er
sp art
ĠM ike
ot te
co very
Ġhouse hold
Ġad s
Ġ199 0
ĠZ it
ĠAr ten
Ġtr ifft
ĠKl ima
Ġf ishing
m art
le ts
ĠTra vel
Ġbe at
Ġa gencies
ĠB on
Ġcollabor ation
Ġwh om
d et
Ġkeep s
ĠA st
ĠY oga
Ġregular ly
Ġlo ves
Ġfrequ ently
c omp
alle l
ĠAcc ording
r s
b rÃ¼
is ierte
om aten
hol t
gre es
ĠD C
ok ing
Ġapp ar
Ġgemeins amen
ber e
Ġwe iss
ĠBe wertung
Ġeff iz
ĠN ummer
Ġinteress ant
rit z
ĠSte p
ĠzusÃ¤tz liche
Ġg ere
ro at
el a
Ġche ese
Ġb attle
onn a
ĠEr de
H and
ĠKom fort
Ġclass room
ĠF arm
g Ã¤nge
Ġinv ent
Ġz Ã¤hlt
Ġfor ces
Ġ <
ĠYou Tube
cl ass
Ġfol gt
ĠMil ch
B ild
Ġviel es
Ġan gem
w all
Ġchallen ging
Ġsl ot
ĠVer lag
ĠGal erie
Ġremov ed
as tern
Ġsett ings
ĠKategor ien
ĠLes er
Ġtechn ischen
9 7
h ome
Ġgro wn
Ġdom estic
Ġfavour ite
act ions
t Ã¤
A re
Ġtechn ique
Ġbe einfl
Ġf urn
ĠÃ¼ber w
Ġbew usst
Ġa merikan
Ġb la
ĠEr krank
s he
Ã¤n n
Ġg un
h Ã¼
Ġschn elle
ĠB ath
Ġges tern
n ummer
st ation
ĠBeit rÃ¤ge
Ġzun ehm
Ġge legen
ĠEin fach
pf ad
Ġr iver
Ġge halten
Ġgradu ate
Ñ Į
ĠF ord
Ġver me
ĠM uster
B u
o be
Ġsupp orts
Ġbo ost
Ġtyp ical
c ore
own ed
ĠVergangen heit
B itte
k ts
ack t
Ġch ocolate
ĠKl im
Ġp un
ĠL iving
la uch
ĠZeit ung
Ġg arten
ĠEx tra
Ġschle cht
Ġsw imming
Ġmat ters
Ġprote cted
ĠKosten los
ĠK ant
Ġtra il
Ġfor mal
ax y
Ġt utor
Ġevent ually
ĠM ir
Ġreve aled
n etz
akt oren
ĠMethod en
Ġto llen
Ġs alt
oc rat
Ġrecord ed
Ġs Ã¼
ĠF eder
Ġsch we
art ige
V O
ĠBran chen
T ER
Ġmus sten
ĠMot to
eld et
Ġf o
ĠO hne
ie de
ĠM A
ĠCo ast
Ġbre it
ag ne
ib il
ste iger
Ġspirit ual
Ġbegeister t
5 6
Ġw et
Ġk illed
ief ert
ac ious
ĠHome page
ro st
ĠGe fahr
Ġge ziel
cl us
Ġord ers
Ġreco very
RE E
ĠAlex ander
Ġintrodu ction
Ġc able
h ar
Ġa wareness
i ams
ct ic
Ã¤mp fen
ond e
Ġd ritten
Ġpers pective
Ġbeg innen
ĠTex te
ud es
ĠBaum w
Ġinstit ution
ĠFre unden
k ul
Ġun less
ĠArbeit spl
Ġless ons
Ġp il
ind ing
Ġconf irm
ber icht
ĠJ ac
Ġreg istr
Ġge zeigt
ĠSemin ar
Ġcit izens
P R
re ffen
Ġr uss
Ġauf s
ĠRel ig
Ġi OS
ĠCo ach
Ġatmosph ere
Ġanc ient
ĠP far
Ġchar ges
Ġcho osing
ĠAud io
Ġzie ht
Ġal cohol
ĠAb st
ĠGe heim
ĠChild ren
ĠW ies
Ġhor se
Ġtro cken
Ġrob ust
ĠErn Ã¤hrung
B I
Ġe ure
ĠPhot o
B M
ĠSk y
verb ind
k m
ĠS amsung
roll er
ĠDÃ¼sseld orf
and ers
Ġme at
Ġc am
ĠD or
Ã¼ck s
Ġhealth care
Ġc ake
ĠAltern ative
Ġlic ense
ol en
em it
we et
com es
ag d
Ġteil en
ĠKomp on
oul der
201 3
Ġch annel
for ce
u ing
T R
p assen
ud den
Ġ. .
stÃ¤nd igen
Ġp ad
ĠD ass
Ġun be
C o
ĠIt aly
M us
w eite
Ġpurch ased
Ġhold s
Ġt ap
ĠN a
Ġge fallen
Ġfound ation
usÃ¤tz lich
Ġsh ock
ĠCo ver
Ġch icken
ĠHist ory
ĠB ob
ĠLe vel
al te
ĠPr in
ĠKomment ar
stÃ¼ck e
Ġoptim ale
m ont
Ġk g
ĠH P
Ġresearch ers
olog ien
g reg
l ager
Ġver pflich
sp h
Ġnie mand
Ġab z
Ġsh ops
Ġsk ill
Ġconst it
ien z
Ġmain ly
Ġgro ss
ĠGutsch ein
ien s
Ġren ew
Ġbes itzt
ĠP ool
p ie
ĠB lo
ĠSt ory
ab eth
Ġcomp r
r aten
ir med
tag s
idel ines
resp ond
ĠSec ond
zip lin
Ġgraph ic
l as
ĠS anta
ent le
ren nen
Ġemploy ment
He ute
f ers
ĠL ind
id ance
Ġattra ctive
Ġt asks
ĠAntw orten
Ġc oin
Ġconsider ing
c omm
Ġin frastructure
Ġsozial en
ĠVerantwort ung
f ted
Ġo k
Ġexper im
Ġpass iert
Ġauthent ic
ĠBer at
stÃ¤nd en
Ġd ent
ĠS yn
ĠWel che
ĠRe fer
Ġfix ed
Ġinstit utions
bau en
w en
Ã¤hl te
Ġnut rit
Ġsim pl
cl usion
Ġprote in
ĠG ene
ĠWebs eiten
a ust
Ġv intage
6 4
wh ich
Ġrev olution
ĠS E
Ġf asc
ĠCons ult
ĠL ud
Ġeuro pÃ¤ischen
ĠMe ine
Ġange geben
De utsch
r est
Ã¼ re
u ber
der t
Ġseem ed
ie fen
ĠKon zert
ĠCan adian
stÃ¤nd ige
ĠTre ffen
Ġmot ion
eind e
ĠT aschen
Ġmus e
far be
Ġgesch Ã¼tzt
li ers
Ġdest ination
t op
Ġger ing
Ġwel chen
Ġfac ilit
ĠL am
if fer
ĠSort iment
ĠH Ã¤lfte
Ġtre ated
m ond
ĠRuss ia
ĠHeraus forderungen
ĠBrow ser
he iz
Ġstand s
Ġpl ate
How ever
f ot
Ġsp r
Ġd agegen
Ġacc omp
acht ung
Ġcon ver
ĠJ eder
ĠZ ut
Ġspe zielle
ĠU ser
ĠC ommer
Ġcert ified
ĠSchm uck
Ġiss ued
Ġdynam ic
ĠRe isen
Ġer ror
ĠRest aurants
ou red
ĠL Ã¤nder
Ġs oul
ĠOb ama
ĠP ul
y ers
ĠCount ry
Ã¼nst ige
an ing
Ġgel ang
Ġs Ã¼d
frist ig
ach ung
ĠFil me
Ġit alien
Ġfre edom
Ġt aught
Ġto m
Ġr is
Ġh ilf
Ġfor g
Ġaccess ible
Ġtell s
et her
ĠMin ute
ĠDeutschland s
Ġw eder
ĠOpt im
ĠI ran
Ġangen ehm
Ġus ual
Ġz Ã¤hlen
Ġinst rument
g rÃ¼
ĠG ran
Ġrep lace
ĠR od
Ġdep th
M ed
Ġent reprene
Ġorgan ized
Ġge fÃ¼hrt
reis en
us sen
ĠBet reuung
pro f
Ġinteress ante
ĠFried rich
ĠEnts p
ĠGem Ã¼se
ĠB oston
ĠH immel
ĠbeschÃ¤ft igt
ĠAn ton
Ġprogram me
M ost
iz enz
ĠJugend liche
Ġsurpr ise
ĠK ids
Ġsol ar
Ġdeterm ined
er ver
ul f
ĠLe ad
Ġfac ing
ub il
Ġserv es
ĠSte fan
ĠBe vÃ¶lker
u is
Ġaus geb
de ut
ĠEin blick
Ġtechn ische
l ik
ĠJ er
Ġf ell
Ġfact or
ĠArchite ktur
E l
ent ation
t ics
Ġe ast
Ġinter pret
archite ktur
ĠCont act
Ġvirt ual
ĠS EO
h Ã¤nger
ĠBe teil
ĠVer k
Ġcondu cted
S ystem
rÃ¤ umen
ch nen
ĠVert re
U L
Ã¤ use
Ġsicher lich
ĠD og
ear beit
ĠC ir
Ġle bt
Ġhistor ic
6 7
Ġstrateg ic
is is
Ġb ags
ĠR ess
Ġfl ower
Ġdru gs
b ut
ichtig ung
Ġkom fort
ĠMid dle
Ġfor um
tem berg
Ġob jects
ĠEuro p
Ġfoll ows
ge legt
fa ction
wÃ¤r ts
ungs s
Ġa w
Ġd ivid
Ġident ity
ĠAndre as
G en
Ġp ill
ĠC oll
Ð ¼
ĠW asch
ĠTable t
for schung
ges pr
isten z
ern er
br id
Ġwohn zimmer
ĠGeb iet
re me
Ġdou bt
Ġwes entlich
Ġnetwork s
ĠkÃ¼ mmer
Ġexhib ition
Ġexper iment
Ġre venue
Ġa thlet
Ġg am
Ġmom ents
Ġ4 4
Ġa part
Ġvor be
Ġrelig ious
ĠEdel stahl
ĠSm all
j ack
Ġpropos ed
ĠJ enn
ĠPa ar
st ruktur
Ġkomm un
Ġspe aking
ĠAs ian
laub e
R W
ay a
Ã¼r n
hal tet
Ġpl anned
r ufen
ĠR ose
yste men
fre ien
eins am
ĠPrÃ¼ f
k Ã¼n
Ġat tended
ren cy
ĠerfÃ¼ llen
C C
Ã¶tz lich
Ġsitu ations
Ġco ordin
ĠOn ly
Ġgest altet
writ er
ĠTÃ¤t igkeit
Ġwe alth
Ġimpress ive
ow een
ĠEx p
ĠN on
Ġzu gleich
f Ã¤lle
ĠS ab
W ork
ien ste
ĠA ction
ĠS ite
Ġalle ine
ĠViel falt
ĠR u
Ġso le
ivers ary
ĠD enk
ĠAus gabe
Ġperform ing
c ers
O D
bl og
ĠEx pl
ĠDre h
Ġth orough
lauf en
Ġtrou ble
ard inen
Ġcons ists
Ġdec re
ĠPol icy
ĠF ast
ĠAus gang
ĠK Ã¶r
ĠS ales
B r
ĠK abel
ress en
ĠGu ide
ĠJugend lichen
Ġele ction
Ġh yp
ĠDres den
de cken
Ġcolle cted
Ġde grees
ĠFahr er
ĠL ittle
te x
et ts
ĠSchÃ¼ler innen
in ch
Ġpos itions
Ġbek annten
du ate
ĠPr im
Ã¤n z
D am
ĠDet ail
Ġv ast
5 8
% .
st ers
Ġexpect ations
ie ur
Ġdraw ing
Ġcon sequ
5 7
Ġbe er
Ġex cess
hÃ¶r den
ĠSp itze
ĠK ram
c ue
st ream
ind ert
Un ivers
ĠAust ausch
Ġattach ed
ĠN ahr
imm ungen
Ġoper ate
Ġmix ed
ch i
Ġein st
! "
ver trag
z ing
ail able
Ġv it
ĠInstit ut
Ġver lei
Ã¤ ne
ĠE ll
Ġch ief
ok ol
st il
ĠBe ziehung
wind igkeit
ĠL uc
ĠLe e
Ġaus gel
Ġst ated
ĠSc ot
Ġharm on
ak ten
Ġult imate
S tra
ĠTerr asse
ing ers
Ġg lob
Ġan x
ĠG olden
Ġinv ited
Ġex tended
med izin
ĠCarol ina
Ġrand om
L ast
V C
Ġc erem
Ġbow l
in u
Ġzu erst
Ġde bt
Ġac cepted
ĠG ab
Ġfound ed
ĠAn lagen
fl anz
Ġbe eindruck
Ġfest ival
o ben
us es
ĠP rakt
Ġ0 6
Gr und
gor ith
ĠE M
Ġtransport ation
d is
ĠS au
ĠN ick
Ġent lang
Ġbeg leitet
Ġredu ced
ĠJ ersey
Ġspl it
s ite
Ġ6 00
Te am
Ġr u
ĠauÃŁer halb
Ġneues ten
ht t
Ġle gs
ĠPers pekt
ut ral
ide en
ĠEin fÃ¼hrung
st uhl
gemein schaft
Ġknow ing
ĠSp irit
spr uchs
ĠIm mer
Ġeinzel ne
Ġremain ing
ĠOff ic
ĠCh ancen
ru cken
Ġh ung
hip s
ĠUp date
ĠVirgin ia
ĠM ade
Ġman aging
ĠO S
ĠTH E
R L
ĠEre ign
Ġgraph ics
Ġb ond
Ġdefin ed
Ġwir ken
Ġelect rical
ĠVer letz
Ġpick ed
ĠL ock
Ġadv is
O ver
ĠF okus
pl ays
Ġange zeigt
iar den
kennt nisse
Ġt ab
Ġbig ger
Ġgew Ã¤hlt
Ġt iny
Ġerkl Ã¤ren
Ġin ches
ĠM esse
Ġcomm ission
ĠCol umb
Ġfl ash
Ġausreich end
Ġth read
ĠBenutz er
ĠZus atz
ko hol
Ġcomm and
ĠH alt
gef Ã¤hr
Ġorigin ally
ad ow
utz ung
Ġstyl ish
Ġex ternal
Ġcreat es
Ġkon kre
spiel en
ĠN ic
ast ik
Ġprincip les
Ġver Ã¤ndert
ic ient
ot al
Ġsignific antly
u ationen
Ġr ust
Ġform ed
b indung
Ġd ienen
Ġfun ny
5 9
our cen
F in
m ale
ĠB lau
ot ive
ograph ic
Ġstark en
Ġqu ote
Ġhon or
h erstell
ĠK unde
ĠR ang
auf trag
Ġmeet ings
Ġh idden
Ġplan en
Ġ: :
ĠKat zen
re ifen
ĠC R
St and
ĠBes tell
Ġstell te
Ġle ichter
ĠS yr
Ġan sch
lo c
ĠAb out
ep ing
auf nahme
ĠO ri
Ġtra cks
Ġu l
Ġtrans ition
Ġges pielt
ĠFol gen
Ġco ck
Ġperman ent
st ock
Ġo vers
ĠM ah
Ġc orn
Ġ199 8
ste t
Ġpat io
Ġpost ing
Ġvoll stÃ¤ndig
Ġcateg ories
Ġauth ors
if fe
erm a
ĠBÃ¼ hne
qu ir
Ġinst ance
Ġkl icken
ĠAk k
Ġa chten
ĠTe en
Ġfile d
ĠWar um
Ġlik es
Ġaffe cted
Ġend s
gew icht
ĠD I
ul um
Ġg rew
we ge
ru p
ag on
ĠJ ones
Ġwid ely
Ġviol ence
oth ing
P e
Ġrec y
ĠF oot
Wel come
Ġkon zentr
rel ated
Ġcr ime
ĠFranc isco
u tel
Ġr ough
Ġe ase
ĠB Ã¼r
Ð ´
Ġs ac
Ġlo cks
Ġmat hemat
Ġprin ting
g te
ĠL at
Ġt iss
is st
Ġeigen es
Ġrece iving
ĠFin ancial
ĠS M
un n
ĠY es
Ġt ube
ĠF rieden
ru he
Ġzw eit
P ar
Ġac id
h yd
il iate
ĠVertrag s
Ġprov en
ĠJe ff
8 7
Ġwar rant
Ġbrow se
Ġprofit ieren
Ġh am
ge fÃ¼hl
Ġsch Ã¼tzen
ĠRe f
el ry
Ġgef ert
Ġs uff
reg ierung
ĠIns urance
Ã¤r t
zieh ungs
Ġbehand elt
ĠS achsen
Ġcas ual
ent wick
Ġgen annten
Ġent fernen
Ġver stÃ¤r
aus chen
rÃ¼ st
Ġcirc umst
ĠE xt
Ġwe ap
T ags
ĠWer bung
Ġs umm
Ġv ere
ain er
ans as
hal ter
Ġstark e
ĠSt ress
ĠRo h
Ġ4 9
pÃ¤ ische
Ġf as
Ġab sch
Ġass ets
Ġfram ework
Ġh alt
ĠA wards
ĠKil ometer
ĠAre a
walt ungs
rech te
ĠS U
isch t
ĠIm age
ĠG ang
B est
Ġinform iert
ä ¸
ĠB atter
ĠInter essen
ĠI reland
ĠR ett
ĠPort ug
W ell
ĠEin en
en kt
ĠK im
th a
Ġw itness
Ġlie b
ic an
ĠAs pe
k es
ĠM acht
ĠComm unic
F il
c ons
Ġis ol
z unehmen
Ġw al
Ġsh ares
ĠZu hause
ĠhÃ¶ch ste
ĠAn sprech
l ust
ĠAuf nahme
Ġgu idance
ol o
ĠBahn hof
od ge
Ġlie ÃŁ
A F
P U
ĠHol lywood
end em
ĠVor stand
kl ass
zÃ¼ ge
gy pt
Ġaus ges
Ġspe ech
Ġimpro ving
Ġinvestig ation
act ive
Ġphotograph s
Ġlo hnt
Ġwill kommen
Ġges ucht
sp rÃ¼n
ĠAn zeige
u um
pro fit
ĠD ist
ĠOb jekt
I K
l ar
ĠFre ib
all o
ĠDi am
j i
ind ustrie
Ġen orm
Ġs la
ĠLe ider
Ġnew sp
Ġter ror
ĠT ats
ĠS tell
Ġin ch
Ġ4 6
Ġfunction al
Ġ0 2
ĠschÃ¶n sten
Ġt a
Ġnot iced
Ġv olle
ĠCh at
ĠGew alt
ĠauÃŁer gewÃ¶hn
end ers
ĠSch war
we il
Ġver urs
ĠP ast
Ġs oph
âĢĻ .
Ġm ac
ĠB Ã¶
ĠF ashion
ed ing
Ġthe oret
Ġh ang
c or
Ġge he
Ġprogram ming
ĠJose ph
re ck
ĠJ oe
ist a
d as
ĠKont rolle
C om
G em
Ã¤hl ten
Ġqual ifiz
Ġindustr ies
Ġcont ra
Ġm aÃŁ
Ġin put
ĠVer stÃ¤nd
Ġexcept ional
Ġhochwert igen
ist isch
Ġrec ipes
schul en
ĠH ell
Ġgen Ã¼
ĠHerstell ung
ĠF riend
gl ing
spiel er
os es
kle ider
ĠMass age
Ġ4 7
we in
Ġcapt ure
ĠGrÃ¼nd en
ur st
stell t
ĠÃ¤hn lich
ĠK Ã¤
Ġh osted
Ġout put
l ong
P M
Ġcar bon
O V
ne ys
ĠIntegr ation
Ġwahr scheinlich
Ġon going
ĠBil dern
k ap
Ġgem Ã¤ÃŁ
ĠApp lic
ĠfÃ¼hr te
Ġcy cle
Ġdeb ut
ĠS ummer
ĠBre men
P re
ĠMod el
gre if
Ġ6 4
at ik
ĠE N
Ġm ont
Ġvis ited
im ension
E d
ĠF an
b rit
ĠLeit ung
Ġimplement ation
Â ¼
ot ing
Ġle isten
ĠVer waltung
ĠKla us
ĠFe hl
ĠB le
ĠPr int
polit ik
ob el
oss ible
Ġclos ely
ĠD E
versch luss
ĠR enn
ov en
Ġdar aus
On ce
ĠHoch schule
Ġdein em
ĠB ol
ĠSil ver
Ġreput ation
Ġt all
Ġoffic er
ĠDon ald
ins el
mus ik
bra ucher
Ġs hr
Ġbl ow
Ġpriv at
Ġch art
w enden
Ġconcern ed
A V
ĠK ein
Ġvor ne
Ġmo ist
ĠBes onder
Ġbott le
Ġtick et
Ġcomp are
Ġrec ording
Ġdire cted
ĠÃ¶ sterreich
Ġb order
Ġconst ru
Ġspezie llen
r ics
j ob
ĠNach dem
Ġele v
ĠMill iarden
ĠLear n
ĠEin richtungen
Ġt ank
Ġspecial ist
ĠPl attform
ĠA rom
I hr
ĠM ut
Ġ0 4
akt ionen
Ġmag n
ourn ament
Ġakt ual
gem eine
aun a
Ġgen u
ĠAut os
Ġintern ationale
F orm
ĠK it
S ervice
ĠLe icht
Ġregel mÃ¤ÃŁ
end orf
Ġag gress
Ġc lock
ann a
ĠF ederal
Ġt ight
Ġkomp et
pl atten
D uring
Ġf u
ĠOber flÃ¤che
ĠÃ¶ff nen
hal f
en burg
Ġweiter er
ĠWill iams
ine in
Ġsuper ior
Ġturn ing
ie te
ĠH em
Ġk rÃ¤
par atur
Ġp ic
Ġhers elf
az ier
ĠInstall ation
seit ig
O K
y ou
Ġfact s
Ġcru cial
ĠChar les
ĠSouth ern
ĠAb m
Ġsupp osed
frast ruktur
ac ing
Ġsched uled
ĠZahl en
ĠD rit
ĠR h
Ġver st
Ġab use
rech er
Ġclos er
Ġw inner
ĠN in
Ġge plant
ĠS her
Ġhab t
ĠUnter kunft
Ġnah m
Ġtw ice
Ġdo pp
Ġpay ing
ĠSp iegel
Ġbe we
Ġwir st
ĠBe fore
Ġeinfach en
krÃ¤ fte
Ġbis lang
ĠSte ve
] .
ĠPrÃ¼ fung
Ġor ange
Ġwe ak
Ġ0 5
ĠP ract
Ã¶r se
Ġ8 00
ann ter
Ġlet ters
et ic
ĠM iner
Ġein iges
Ġk Ã¼rz
ĠÃ¼ber zeugen
be ck
Ġelekt r
ut ors
ĠMittel punkt
i ess
tw ork
Ġfre ien
Ġyoun ger
fahr ung
zieh ungen
pfad ern
ans ion
T P
Ġnorm ally
Ġbr ush
Ġt ested
ĠDesign er
Ġsm ile
forder t
Ġsubmit ted
Ġaus ger
ap ore
ad or
ĠMik ro
Ġgemeins ame
le gung
S a
gestell ten
Ġ essen
Ġneg ot
Ġl iquid
ik on
r er
ant ie
ibli othek
ĠForm at
Ġliter ature
Ġj apan
au x
Ġtran sp
Ġcon cepts
ĠEx press
Ġmill ions
Ã¶r ungen
Ġob lig
Ġconf irmed
rÃ¼ ckt
Ġcr iminal
ĠO t
Ġoff ices
ĠDatenschutz erklÃ¤rung
ĠEmp fehl
Ġersch einen
Ġwrit ers
Ġinteress iert
ĠA sh
ĠPr ime
Ġqual it
ers e
ĠJob s
te in
ra hmen
ĠDi agn
Ġy ard
Ġenc ounter
ĠJ azz
amp s
ĠFÃ¤h igkeiten
ĠV ern
Ġenter ed
Ġge ar
Ġsk y
ĠGer ade
ĠBM W
op ath
ver gleich
n ic
Ġ9 9
Ġer Ã¶ffnet
rag on
Ġcap able
Ġtreat ments
r hein
ĠAl ten
br idge
Ġinvest ors
G u
Ġt or
Ġspe zial
S D
Ġag ents
Ġfin ance
Ġdescrib e
Ġinter face
ĠZÃ¼r ich
ĠInnov ation
ĠV om
Ġp fle
Ġl ok
Ġmembers hip
ĠDan ach
ĠBesch Ã¤ft
o fen
ĠMed ik
ĠDis ney
ĠB an
Ġmag ic
Ġprepar ation
ir r
zeich nis
ĠCh o
w orten
ĠWork shop
' ,
ĠAd dition
if ies
ĠW are
P al
Ġs udden
ph an
ĠBit coin
prÃ¤ gt
Ġev ol
Ġdesign ers
Ġin e
ĠP lace
Ġges p
Ġimag ine
Ġsustain able
Ġb rit
Ġh art
ĠU V
x id
Ġer leich
Ġadv oc
ĠBo ot
f ried
as ted
ĠF ollow
am i
pr int
Ġdre ams
Ġgra b
Ġchar ged
Ġel ig
Ġ198 0
ĠPhil osoph
ĠS aint
Ġnar row
Ġbre ad
ĠP resse
Ġde kor
ĠNach mittag
Ġentsp richt
ĠDis play
ĠLein wand
Ġcon v
ĠUnter schied
ĠSol ar
ĠQue en
or ien
Ġg od
Ġconf ident
form ular
ĠD ipl
Ġincor por
Ġw asser
Ġgespe ichert
ĠSong s
ĠW ik
grif fe
ĠfÃ¶r dern
W Ã¤hrend
Ġb uchen
Ġcomp at
Ġhighl ight
Ġverw and
as i
Ġex klus
kle ber
ĠIn tell
ell ence
Ġdurch s
ĠB ody
ent in
Ġun ge
ĠViel leicht
ic ted
Ġpr Ã¼
ĠZe aland
Ġbild et
Ġplan et
zeich nen
ĠNe xt
ĠF ig
isten ce
ĠausdrÃ¼ck lich
te ch
ĠAmeric ans
ĠDiv ision
ĠSp ace
Ġat temp
ĠGr Ã¶ÃŁen
Ġeng agement
Ġshoot ing
Ġvers ions
ĠðŁ Ļ
ver waltung
fl ow
ĠVe gas
Ã¤r ten
Ġcook ies
ĠðŁ ĺ
ĠN ar
Ġgl ad
Ġehemal igen
Ġwas h
Ġsch olar
in fo
ĠH alle
ĠPr ice
Ġv ul
atch es
Ġch apter
Ġearn ed
ĠÃ¼b ersch
Ġhe ight
EN T
ĠerfÃ¼ llt
iet nam
Ġlink ed
ĠBer icht
Ġl iber
Ġas p
h ist
ĠStud ents
Ġfla vor
Ġlie fert
Ġaccommod ation
Ġk ulture
ĠGer icht
d ra
ĠK ong
ĠU sing
ĠSchne e
ĠRis iko
ĠC C
ĠVor bereitung
Ġeing et
us ing
a ul
ĠAufent halt
Ġm att
vers ammlung
merksam keit
w uchs
ĠS ale
Ġextre me
Ġsp ark
ĠGir l
le v
lieÃŁ t
fÃ¼ llt
Ġsign al
Ġlux ur
ĠVort rag
Ġfor ced
Ġh ur
ĠL ist
Ġ8 5
roll ing
Ġverh indern
ĠSe a
Ġph ase
ĠBr un
le in
ĠG umm
w an
f red
Ġprakt isch
Ġ Ã¶ffentlich
ĠR ay
gesch rieben
ĠApp s
Ġfa iled
Ġfocus es
ĠD ol
Ġdec ade
ĠF ett
gh an
Ġenter prise
le c
ĠM ig
loy ment
en ing
ĠB ron
Ġen ables
art ikel
Ġgr ass
Ġcondu ct
ĠN iger
ĠS per
Ġpr icing
u i
Ġt ur
and en
ur laub
Ġsch me
ĠSe hr
ĠAn trag
bur y
Ġwire less
Ġsp rach
ĠVer Ã¶ffentlich
ĠAnt i
Ġze igte
zug s
Ġ9 5
b is
Ġc ro
Ġ4 3
JÃ¤hr ige
ĠAl uminium
k ar
oc iate
Ġbook ing
Ġdoll ars
ut her
Ġbesch rieben
ĠAus druck
Ġv end
Ġper mit
Ġmon itoring
Ġb ab
ĠB ord
ĠF inger
ĠK op
ĠFrÃ¼ hl
stell ungs
r unde
cht est
ĠP oten
Ġern st
ĠÃ¼ber tragen
Ġnahe zu
ĠBalk on
201 2
ĠInst rument
ĠDire ct
le vel
Ġsogen annten
ĠV ar
cc er
ĠN utzen
A nt
Ġfas zin
Ġmur der
w Ã¤hlen
l ow
Ġflo od
ĠLiefer ung
etz ten
onn ummer
Ġeingel aden
h te
Ġp od
Ġw ra
ĠB oy
Ġfol ks
B O
Ġpr ide
C E
Ġte ch
Ġung laub
ĠStud enten
7 9
z i
ĠF REE
Ġtalk s
Ġstre ets
Ġentire ly
prÃ¼ fung
ach tet
m ag
ĠW M
ĠKon zer
8 9
Ġm ature
Ġenjoy ing
ĠK amp
Ġrel atively
F ar
Ġmiss ed
Ġsatis faction
ĠB ag
Ġfe hl
Ġmus cle
ĠP age
Ġ4 1
Ġcandid ate
Ġreturn s
Th anks
ĠEn joy
Ġpolit ischen
ĠO ffen
ĠK uchen
ĠEin s
ymn as
Ġcol umn
ie ben
" )
ĠF L
Ġhe ating
Ġsol ve
! âĢĿ
re y
Ġexpla ined
Ġfail ure
Ã¼lt ig
Ġy es
ĠL ernen
ĠEuro pÃ¤ischen
ĠLim ited
6 9
d ire
D och
Ġd ick
ĠR un
ĠEn vironment
ĠBra zil
Ġun w
Ġas pect
Ġsinn voll
ĠIn itiative
ĠSchn ell
ĠK reativ
Ġj ur
Ġho le
Ġlaw yer
Ġbess ere
ĠB achelor
ĠAn lass
Ġbl ind
Ã¤ch er
Ġlay er
Ġret ire
ipp er
Ġro les
ĠM ethode
Ġun able
Ġflo oring
Ġst opped
Ġme ets
ĠGe brauch
ĠChar l
Ġpow der
G E
an ch
et ch
Ġb odies
ĠSch iff
Ġfact ory
N icht
ĠN ike
ug el
H D
Ġver n
ĠU lt
stoff en
Ġcre w
sprÃ¼ che
W hether
Ġge fragt
ĠSt yle
arbeit er
Ġsubst ant
Ġver mitteln
ĠAben teuer
Ġstruct ures
B o
W E
ĠF al
Ġte x
G ener
ĠR og
vers orgung
Ġsch laf
Ġhin ten
ver tre
L S
er ts
ĠgÃ¼nst igen
Ġno ted
ĠStre cke
ĠOh io
ĠS ir
telle ct
ĠGeschÃ¤ ft
Ġequ al
Ġdistin ct
ĠM ak
als o
Ġworkshe ets
V iele
ĠKont akte
ĠV ision
ord an
Ã¼ mer
Ġverb ringen
ig ger
os a
ul ing
Ġrec over
fÃ¼hr ungen
ĠBut ter
w ords
Ġdigital en
ĠJack son
ĠJahrhunder ts
d itions
V iel
ĠSch uh
mod ell
Ġentde ckt
ĠM ust
ĠSe kunden
Ġho her
Ġregul ations
Ġlisten ing
ak et
Ġa wards
ĠFreund in
Ġlay out
ĠErwachsen e
Ġges ellschaft
Ġdefin ition
ĠN och
Ġfl ag
ud i
ĠKomp etenz
w ander
ĠR ollen
ber ater
Ġlist ing
L et
ĠF ly
ĠAnd rew
am ed
Ġfr ustr
kont akte
Th ank
Ġkos tet
Ġdanger ous
ĠColle ction
ys is
Ġcra zy
Ġinde x
is ierten
ers hip
Ġ0 3
ĠWh ere
Ġinj uries
Ġprof iles
ĠBund est
Ġe g
en g
Ġe hr
ĠW rit
ĠLauf e
Ġful f
Ġtran spar
ĠNews letter
Ġverme iden
ĠL ady
Ġcont rast
Ġarr ive
wie gend
Ġl Ã¶sen
ĠBro ok
ĠKranken haus
ĠH as
ĠUms atz
Ġg al
Ġtr ick
ĠAn na
ĠWeihn achten
Ġnew ly
Ġbre ast
M ein
ĠG Ã¼
Ġappe al
ĠStÃ¤d te
ĠDec or
h och
us ste
hol ung
Ġdiscuss ed
Ġabsol v
ĠL ed
ip al
ĠLand schaft
Ġged acht
ĠQual ity
Ġpro of
ock ey
ĠColor ado
ĠBeaut y
D I
ĠP A
Ġleben s
Ġincred ibly
R I
Ġtem plate
Ġstain less
Ġrefle ct
ann els
Ġd ual
Ġpr ison
k ins
Ġavail ability
Ġremov al
ĠC ru
ĠBu ilding
zahl t
Ġinform ed
Ġobject ive
ĠL aden
am ental
Ġfind s
h orn
o ter
Ġk o
Ã¶ m
Ġm Ã¼
Ġcoun sel
P ol
on ic
Ã¤ hn
geb Ã¤
Ġrefer red
ĠGraf ik
rÃ¤n kt
ĠS ow
Ġperson ally
Ġex pression
Ġsol o
Ġweek ly
ĠMich igan
Ġcr isis
Ġhappen ing
Ġk auf
ath an
Ġst ir
Ġfig ures
ĠAnwend ungen
Ġge Ã¶ffnet
Ġaim s
es ign
ro llen
Ġle ct
Ġens uring
ĠNe ub
' .
Ġpubl ish
j ust
Ġne un
Ã¤us ern
Ġplatform s
Ġund ert
ĠSch au
Ġmer ch
Ġch ron
Ġrespons es
ĠBa uch
ĠHand werk
Ġpl Ã¶tzlich
Ġp hen
ĠJohn son
Ġcommunic ations
Ġer fre
ĠK ab
ĠEnter tain
ĠHeraus forderung
M ore
Ġperson ality
pro of
Ġnie der
ĠÃ¼bern immt
Ġst il
Ġc otton
ĠJahr zehn
Ġalong side
adem ie
ĠAl b
wer b
Ġhinge gen
ĠArbeit geber
at al
ĠD omin
ĠGrund lagen
Ġbes tens
Ġfac ulty
Ġreport ing
C an
S et
ĠKon fl
Ġcommon ly
Ġre ward
rÃ¤ cht
Ġo ven
Ġprodu cing
ĠJ im
ĠVer pack
E uro
ĠF urniture
ĠAn th
ĠGe gner
ĠLe on
je cted
ĠN OT
ĠBÃ¼rger meister
ĠW under
ĠH ope
H A
la fen
ĠBel ast
Ġd Ã¼n
ĠM ission
Ġp oker
Ġge pl
ĠLe idenschaft
ĠAkt ien
ĠT ay
ĠLog o
Ã¼rt temberg
Ġad opt
Ġobtain ed
Ġb anks
Ġprim arily
b ast
u den
Ġb ars
ĠO bst
rum ents
ĠÃ¼brigen s
ĠBevÃ¶lker ung
W ill
ran che
wer ten
Ġtre ten
Ġan spruchs
Ġhistor ischen
Ġr ig
Ġpolit ics
3 00
Ġeng age
unter richt
Ġresist ance
ĠT i
ced es
ber eiten
Ġhol idays
ĠPac ific
ĠVerÃ¤nder ungen
Ġtr ib
Ġcap abilities
an er
ĠH ack
Ġar ray
Ġgu ard
Ġcal endar
ĠClass ic
Ġinteract ive
Ġ 00
ĠA ch
ĠAnsprech partner
ĠB ible
friend ly
y al
Ġc odes
5 2
Ġ5 2
Ġfin est
ĠP ict
Ġar ms
ĠPark platz
Ġoffen en
Ġne uro
ĠBran che
am ic
ĠKrit ik
ĠnÃ¶t ig
ĠgrÃ¶ÃŁ ere
Ġposit iv
Ġt elling
Ġg rÃ¼nd
Chr ist
6 6
ĠÂ ©
ĠÐ ¿
yd ney
ĠP ur
Ġz er
Ġbedroom s
Ġwh ilst
Ġdevelop ers
ĠWer te
Nach dem
Ġcontrib ute
men s
Ġmus st
ĠKar riere
Ġ ere
ĠLie b
. [
or ters
Ġdeal ing
Ġ3 60
ol id
Ġmir ror
H P
Ġport folio
Ġkont roll
Ġcompon ent
Ġdau ert
ĠVert rauen
. ).
z one
ĠE gal
ab ol
Ġweiter es
iam i
ĠF our
Ġber lin
D em
Ġfre ie
s b
au ern
ĠNorth ern
wohn ungen
ĠR osen
Ã¶p fe
Ġw enden
geb nisse
Ġjoin ing
P N
ov ed
ĠEx am
W ar
Ġrecogn ize
Ġs in
ian ces
st ate
ĠG allery
Ġmatch es
ĠHall oween
Ġachie ved
ĠN ation
ir ks
Ġo h
ĠJ ungen
Ġf irms
ĠSol utions
Ġport ion
less ly
Al though
Ġsub t
M on
g Ã¤nger
ĠC N
ĠL y
ĠAuf merksamkeit
ges ted
Ġ18 0
Ġso il
ĠÃĦnder ungen
ĠSt immung
k ultur
ĠCD U
Ġb are
Ġde fense
ĠB onn
bar ung
ĠRe chnung
Ġce iling
ric ulum
fil ter
Ġr ating
ES T
ĠSch reib
Ġr Ã¼ck
Ġoffic ers
ĠBeweg ungs
ĠA th
ĠKon stru
Ġhal b
ĠGr atis
ĠBed ien
Ġt ack
ĠT ouch
Ġbit ten
Ġfor ec
ĠAn teil
Ġad op
ĠGegen satz
D ar
ĠâĢ º
âĢĻ ,
ĠHerr n
ĠP y
Ġwunder bar
he w
st ens
Ġst ab
An y
ĠLoc al
ĠVerbesser ung
Ġro se
Ã¤ss ig
ĠBereich e
ition en
art ig
ip h
ick et
Ġtra v
ad d
ĠMus lim
ĠKap ital
Ġmon itor
Ġp ra
opp er
ĠS up
lich em
sequ ent
ĠE hren
fÃ¤h ig
if el
Ġcover ing
am ber
P ort
Ġt rop
ĠWer ke
ĠðŁĻ Ĥ
5 1
? "
ub a
ron ics
Ġm ath
ĠPr inzip
Ġag ric
ĠArm y
7 7
ĠA uge
gesch Ã¤ft
Ġintens iv
Ġfor est
ĠSom it
m achen
ge ordnet
Ġfe hlt
ĠMitarbeit ern
Ġst abil
ear s
ĠVol k
it als
ĠTe e
ĠnatÃ¼r liche
ĠTelef onnummer
A kt
unkt ions
ĠProdukt ions
Ġ197 0
Ġun f
Ġcircumst ances
Ġdes ired
ĠSe ele
miss ions
ĠM iet
Ġgener ate
ĠCont ent
Ġge ist
clud ed
ac ted
ĠBau ern
Ġimmed iate
Ġide ale
ĠGal axy
Ġsupp liers
Ġl ies
ĠB ir
Ġfe iern
ĠSt iftung
au te
Ġc ater
Ġincreasing ly
ĠL ot
Ġgu idelines
Ġexp osure
Ġfra gen
ĠBra ut
ĠPh arm
ĠT ief
Ġsch afft
I I
Ġjust ice
ĠKrie g
ĠRegel n
ĠB R
ĠIn ner
Ġpar am
Ġhier bei
Ġinvol ves
ĠSch Ã¤den
au c
Ġa uÃŁen
Ġan zu
hand lungs
ĠBu y
ĠHin weise
ĠdÃ¼r fte
ĠbestÃ¤t igt
sprÃ¼n glich
Ġex ceed
iz ont
Ġinst ruction
ĠAll gemein
if orm
ĠRe paratur
Dam it
Ġpl atz
ĠUm fang
ffiz ienz
bo ards
Ġs enden
t i
ĠG rie
ĠHy per
M en
men ities
ĠEntwick lungs
m y
b Ã¤
ĠG ru
ĠEin ige
Ġflo ors
produ kte
ĠOp fer
g ie
ĠAut oren
k Ã¶rper
ĠSt imme
Ġl Ã¤dt
ĠE cht
Ġdigit ale
Ġsam ples
Ġd ust
oh le
Ġdiv or
ĠnatÃ¼r lichen
S cript
Ġg ender
ĠD ur
ĠD ark
be cken
ĠMont age
ĠNach richt
stell er
Ġatt rib
Ġtw enty
ĠC ome
Ġserious ly
jen igen
for cement
Ã¼rn berg
ar kt
ĠSchw anz
TM L
pp ich
Ġcol ours
Ġpack ages
c ard
ĠUnter nehmer
5 4
te am
ĠJun ior
m aking
ĠH obby
Ġcl ar
ĠAut ob
r igen
Ġant icip
l Ã¤nder
Ġk ill
Ġins ight
he il
ĠAus stattung
Ġa u
ĠK ann
ron en
ĠTe ch
F F
kir chen
st es
Ġden ke
Ġra w
el and
ol i
ĠAl bert
ĠMÃ¼ ller
Ġan hand
g Ã¤
Ġhei ÃŁen
ĠH ung
ĠSch rift
Ġb ilder
Ġcelebr ation
ĠWolf gang
ĠSh are
Ġan erk
ĠZ oll
Ġwoll ten
ĠAn leitung
Ġzahl en
G A
Ġpain ted
ĠS av
Ġatt orney
ĠSpe ed
Ġ q
lie genden
Ġprodu ziert
le ger
spro zess
ĠÃ¤uÃŁer st
ĠS tern
k ind
Ġhy per
Ġexter ior
Ġsch neiden
ĠEx c
ĠB rad
im er
Ġsich ern
ro h
ĠP oint
hl ung
m ith
Ġirgend wie
Ġl ake
Ġme als
zÃ¼ g
Ġdiffer ences
Ġattack s
Ġtag ged
Ġ( "
fern ung
Ġy oga
ĠFil ter
Ġle ts
bereich e
Ġv iagra
ĠIde al
ĠGÃ¤ sten
ĠRÃ¤ ume
ĠK ost
Ġver lie
olog ist
Ñģ ÑĤ
Ġextens ion
ĠF A
Ġse ats
Ġinst ant
stechn ik
z ed
Ġdrink ing
fel der
Ġbeg leiten
Ġgefert igt
ĠB la
Ã¤r zt
erg ie
ĠStud ies
ĠZug riff
aw a
Ġgre y
ĠTemperatur en
p an
ĠD id
Ġum gesetzt
ĠLin ux
cy cle
Ġsing er
Ex per
Ġdur able
Ġrout ine
Ġstar tet
ĠSp ie
pf el
Ġread er
gr Ã¶ÃŁ
H ol
ĠGeorg ia
k opf
o en
ĠUm feld
Ġhand ling
Ġcar pet
ĠAd vent
Ġagre ed
Ġl ady
ip edia
h Ã¤nge
Ġn one
Ġmin ing
Ġcolle ctions
og ether
ĠH at
T ag
ag ues
Ġsogen annte
Ġwor se
ĠÃ¼bern ommen
Ġs ick
us her
Ġbrill iant
Ġfair ly
ĠFrei heit
Ġconcern ing
k ammer
Ġp it
Ġp ussy
Ã¶ff nung
ĠInstit ution
ĠAdmin istration
ĠT asche
ĠLux us
ĠOpt ion
st ark
Ġsav ings
p ower
ĠRuss land
Ġre form
ĠerhÃ¶ ht
Ġsuggest ions
ĠDisk ussion
bour ne
stÃ¤t te
ĠD arm
Ġl ucky
Ġle gt
Ġsu c
ett bewer
B el
Ġt um
ĠWe il
qu ar
ĠThere fore
fa ult
Ġmel den
ĠWord Press
Ġl aptop
M P
ĠIn stead
Ġhol en
ĠS ind
Ġlos ing
Ġrom antic
F r
Ġb at
Ġbr idge
ĠVersicher ungs
Ġ Î
gre ifen
ĠHin weis
B ar
r Ã¤t
Ġl ists
Ġill ness
ĠInter ior
ĠLear ning
Ġth in
Ġbe wegen
ĠEle mente
den ken
cc o
ch ern
Ġp hr
Ġlo ving
Ġver kauft
Ġklass ische
Ġdise ases
ou ston
im en
Ã¶ d
Ġs aving
Ġg aming
Ġfor th
Ġprofession elle
ren nt
ĠPort al
Ġpersonenbezogen en
ĠN erv
Ġsle e
ies e
Ġpay ments
Ġconne ctions
Ġbein haltet
Ġtom orrow
Ġal arm
Ġfasc in
Ġris ks
en cy
ĠC it
ial ly
L oc
Ġret ain
Ġkombin iert
ino is
ĠProf il
ĠZut aten
hol der
Ġcrow d
Ġconst ant
Ð ĵ
fe uer
enden ce
ĠMc C
Ġd ump
In tern
kon zept
ĠQu ad
ĠVertre ter
ath on
Ġaccompl ish
lie gt
Ġco at
Ġreg ions
Ġwel chem
Ġadd s
st het
ix el
Ġbed s
b ian
Ġm ixture
ĠFor ce
Ġmem ories
Ġerst es
ĠBerat ungs
ir at
ĠP u
Ġph ones
ĠSo ft
Ġhead s
ĠmÃ¶ glichen
ark s
ĠOpt ionen
ĠTerm ine
ĠR um
Ġhe aling
St r
er ia
Ġhe av
ĠunabhÃ¤ng ig
ĠMedic ine
ĠSt abil
Ġorder ed
ĠF ox
Ġverpflich tet
D is
ond a
ĠTeil en
Ġm or
ĠL esen
vent ional
H aus
H L
o om
hÃ¶ he
ĠHa are
yr ics
Ġerfolg reiche
Ġr ug
ck now
ĠSt an
z ell
In s
st at
Ġcr ash
ĠKe ep
Ġf ru
ail and
a ult
ĠTh ose
v ents
pp t
urr ent
ĠGeschÃ¤fts fÃ¼hrer
ĠSt ill
Ġass um
use um
zie ht
hel m
ĠH il
Ġle istungs
Ġent stand
ĠP ut
Ġmov es
ĠS Ã¤nger
Ġperson s
Ġcerem ony
R S
Ġer folgen
Ġrecommend ations
he m
ĠAus bildungs
ĠKrank heit
h ou
Ġg entle
Ġrest r
ĠVerstÃ¤nd nis
ĠD ynam
Ġresult ing
Ġf inger
ĠA gr
ĠL iber
5 3
b rand
Ġvict ory
ĠW art
Ġge legt
Ġge kauft
ĠPro per
Ġvers at
rÃ¤s ident
est r
Ġscr ipt
f alen
Ġcont est
rit ts
gew iesen
ĠSchw ang
ia c
Ġman agers
Ġover w
ĠL ar
ĠGes ell
Q L
as ters
Ġfor e
ĠL ack
Ġpro min
» ¿
Ġen em
Ġbes ucht
201 1
Ġbuy ers
ĠB B
Ġd owntown
P D
Ġgr at
On line
Ġer lÃ¤
uff et
in ts
Ġm ood
bur gh
Ġinc ident
Ġar twork
ĠNe ues
ĠSaf ety
Ġwe ich
Ġincre ases
Ġintegr ation
Ġaccount ing
Ġ199 6
an w
Ġd ad
gem einde
gr Ã¶ÃŁe
Ġn ennen
Ġkostenlos en
J e
bew ahr
ry pt
Ġ199 7
ĠV ietnam
ĠVer braucher
ĠBer eits
Ġgel esen
Ġrecogn ition
r ent
ial is
geb racht
om y
iss ions
alen ted
ĠProgram me
Ġapproach es
ĠFrÃ¼h jahr
ĠlÃ¤ng st
7 2
Ġt ile
Ġerfolg reichen
Ġreason able
wechs lungs
Ġtravel ing
ï »¿
Ġcommit tee
Ġup grad
d ays
ĠW LAN
ĠMit tag
ĠGew erbe
yl van
ĠGr iff
Ġblock s
! âĢľ
ie bt
Ġbl ank
Ġfeel ings
Ġto oth
Ġr ichtet
Ġpublic ation
R ep
ĠS now
Ġeng aged
ĠFahr zeuge
ol is
Ġf emin
ĠK eller
ĠZ usÃ¤tzlich
ĠErw eiter
ĠKle idung
Ġconsist ent
ĠC ock
tra gung
ĠQu art
ĠTor onto
Ġge e
ĠKommun ikations
Ġmag net
Ġsozial e
Ġsuc ceed
pr Ã¤s
ĠMat hemat
bild ungen
Ġcra ck
Ġannoun ce
Ġd uty
im it
S oll
Ġer a
" -
Ġlicens ed
ĠR on
Ġprom ise
Ġfight ing
ĠKram pfadern
E ach
Ġm uÃŁ
ra it
ĠH ab
Ġhoff en
Ã¤t igung
J a
M C
l uft
Ġgef Ã¤llt
Ġexpla ins
Ġal ign
lÃ¤ss lich
un es
ĠCon c
Ġless on
he ben
ĠSt o
aus en
Ġpurch asing
Ġpan els
Ġcat alog
Ġsicht bar
ens ation
ĠEin ladung
ĠsÃ¤mt liche
N un
ru e
Ġver mittelt
Ġaus prob
Ġun bek
Ġsh ut
ĠD ig
ers te
ĠG itar
id et
inder ung
bo gen
ĠEst ate
it led
Ġm and
Ġbox es
ĠA T
D ownload
on ed
ĠP ick
, -
Ġintrodu ce
Ġdes ktop
ĠBay er
akt or
Ġcrit ic
Ġhop ing
f unk
ĠT ool
ĠL or
ocrat ic
ĠÃľber rasch
N et
v i
ĠF act
Ġess ays
ro b
Ġch ose
weis ung
Ġgebra ucht
Ġguarante ed
iner y
ĠSim on
Ġmaintain ing
Ġf iel
al o
Ġver bra
ĠOr der
Ġb io
Ġrep rodu
Ġphot ographer
Ġh anging
ĠZ Ã¤
Ġscen es
Ġpass ing
Ġstrug gle
ĠÃĦr zte
b oy
mel den
Ġpock et
Ġch annels
ux e
Ġent rance
Ġ ram
Ġb un
Ġind oor
Ġdiv ision
ĠD ollar
Ġst ammt
Ġwill st
Ġaward ed
Ã¼r gen
ĠDort mund
. ),
ĠStand ards
ĠFl iesen
Ġchild hood
ĠGe fÃ¼
f its
Ġsurpr ised
on ial
rÃ¼st ung
Ã¤ ure
ĠO range
je ction
Ġposs ibility
6 1
Ġm aps
ĠPak istan
S I
Ġe chten
Ġcomb ine
wÃ¤r t
s or
Ġm ieten
ĠT oy
M ich
pl ates
Ġerinn ert
Y es
Ġmax imal
ĠE asy
ĠSt iefel
ĠJ ungs
fe ier
l ink
app e
ĠMusik er
Ġb lieb
Ġven ue
ĠRess ourcen
ist in
Ġsc re
ĠM ischung
sh ips
Ġlik ed
ÃŁ t
Ġsau ce
ĠSch aden
Ġmake up
Ġa cts
Ġt ip
ĠF ein
ĠAus wirkungen
Ġfac es
6 2
ĠB ell
ĠT ok
ĠC atholic
Ġdeliver ing
ĠSta aten
b ow
ĠI ra
st yle
ĠT ank
Ġk re
ĠH Ã¤nde
Ġn omin
ĠE R
ĠUrlaub s
if ikation
Ġhab it
J etzt
id t
ere ien
Ġaus s
Ġconc ert
ĠVer y
Ġassoci ation
kra ine
Ġ ende
Ġe chte
ĠK ent
Ġfre ue
Ġwar n
Â» ,
ĠSqu are
Ġerweit ert
wer ken
Ġkurz er
gere cht
ĠJohann es
ĠSe hens
Ġm old
Ã¼ ler
Ġgleich e
d t
be h
Ġkomp lette
ly n
ĠBro ad
Ġein deut
ĠKore a
ĠWien er
iz ona
âĢľ -
ĠBo ots
ĠSpe icher
ach es
Ġout fit
yl on
ĠHar ry
ĠH im
Ġus age
ĠMag azine
Ġcharacter istics
ol ine
ĠN ut
Ġevery where
nungs zeiten
hold ers
Ġersch ienen
Ġcompar ison
Ġdel ay
app ing
ĠCas inos
Ġann iversary
F ind
ĠK am
Ġdish es
ĠP in
ĠH oll
ĠAm ts
Ġauthor ities
H allo
K e
Ġl uck
Ġstudy ing
ĠExper t
w id
ĠM B
Ġl augh
ĠSt amm
Ġsp acious
pap ier
Ġd ring
Ġb ay
Ġmatch ing
Ġp itch
Ã¼ m
ĠTr ink
ĠM all
et ers
Ġcommunic ate
g ren
f ur
ver kauf
ak i
ĠTr ust
Ġnatur ally
ĠL ese
Ġm ounted
Ġv ill
ov a
Ġfor ever
B ay
et he
ĠM ind
Ġr iding
ĠmÃ¶ chtest
Ġa cknow
Ġbes itzen
Ġmark s
Ġp in
k ung
ĠD uft
ĠP fle
Ġr ural
ĠQu est
9 2
Ġstay ing
prÃ¤s ident
un ior
rif ft
ck et
ĠIS O
ĠRes erv
ĠKl ang
ĠM ap
eit her
Ġsp ray
Ġdo ctors
Ġun us
Ġimp ossible
ĠNatur al
Ġconven ience
ĠStre it
Ġver f
analy se
ush ing
Ġemot ion
ĠBe wertungen
Ġfre m
ibil itÃ¤t
Ġse vere
ĠH ong
Ġo cean
O ut
Ġgesch affen
Ġreal ized
Ġbelie ved
ĠFe ucht
ro vers
ĠDenn och
el en
w ann
ĠR ennen
plan ung
as ure
Ġsch eme
Ġnur sing
Ġwork shops
Ġsk illed
Ġlangu ages
d essen
l Ã¶
Ġab st
Ġben utzen
Ġs ight
ĠM i
kom pl
ĠAd am
Ġop ens
se y
get ragen
ĠH R
fin ed
ch ar
fr iger
stÃ¤t ten
ĠVorauss etzungen
ĠR ath
Ġgeb aut
ĠD aily
ĠDire kt
Ġsuffer ing
ungs mittel
Ġsitu ated
Ġst ring
Ġeinfach er
Ġbra chte
or ous
Ġres ort
iss es
pro jekt
ĠD ress
ĠN RW
Ġben utzt
Ġdra uf
ĠGrÃ¼ nde
ĠSp ain
Ġdest roy
ĠSym pt
ou ver
room s
8 2
Ġv inyl
9 4
Ġor al
Ġhervorrag end
Ġstud ied
ĠGrund stÃ¼ck
ĠR ud
Ġdisplay ed
ĠInspir ation
k unst
Ġsub jects
u age
ĠKinder garten
ĠDr ive
ĠAn liegen
ĠVer g
Ġsoph istic
Ġviel er
ĠTag s
ĠS ysteme
Ġdr iven
id o
spl an
Ġeinger ichtet
E P
ĠP unkten
Ġsurpr ising
Ġerh ielt
H ave
Ġfe hlen
L og
Ġeval uation
Ġsp oke
Me hr
9 3
y o
Ġb ot
kt iven
Ġverl ieren
Ġcent ers
ĠWachst um
h aut
Ġl ift
G ra
Ar beit
ĠS ne
ĠSing apore
Ġdesign ing
ĠTick ets
ĠK ass
ĠEr gÃ¤n
Ġintell igence
ĠAspe kte
ĠW es
ĠC orn
Ġmin ister
ra chten
fle isch
ĠgewÃ¼nsch ten
Ġall gemein
Ġbut t
Ġrele v
Ġbreat h
Ġup grade
ĠBr enn
Ġsus p
Ġspann ende
ĠEben e
Ġwh oles
ĠSp ann
Ġprakt ische
let ion
Ã¼t ter
ĠSp ar
Ġno ise
zuf Ã¼hren
ĠZusch auer
b aut
b Ã¼rger
ĠD own
ĠF ield
ĠVer waltungs
Ġmon at
Ġut ility
Ġb ass
Ġn ights
ĠT O
ĠCh allen
b ig
ĠSar ah
Ġdeutsch er
ru ption
Ġgesetz lichen
ĠHa ust
ch ron
ĠR uf
Ġr ice
ĠSecret ary
ĠA gency
Ġprof essor
pro ble
W elt
Ġk ling
ĠR ent
k at
Ġf its
Ġm ile
Ġin tellect
ĠA ustr
Ġver anst
Ġem pt
ĠCor porate
Ġer lebt
ichte ten
Ġvers ehen
ĠT ennis
ĠAut omat
Ġsug gested
Ġslow ly
Ġkontakt ieren
6 3
ac ular
le der
ĠS H
Ġre chten
ow ers
ĠReg istr
v ia
Ġer geben
Ġsens itive
zus etzen
A ss
ĠH orn
Ġfund amental
li ament
Ġcra fts
Ġsamm eln
Ġnach folg
utz er
ĠGesch le
Ġjew elry
we be
Ġ199 5
ĠJ oin
Ġauthor ity
Ġclub s
Ġa er
ĠR ap
M ay
e ing
l ament
ĠR oss
ff ene
Ġ5 4
Ġassist ant
ĠBet reiber
Ġorgan isation
Ã¼t te
ĠJ ubil
Ġro ot
Ġfre ut
D ate
Wh y
ĠRev olution
end a
Ġgem ein
Ġdel ight
Ġerst mal
ĠNor den
sicht igt
ĠMan ufact
c ia
ĠWor te
t age
Ġwor st
Ġaddress es
Ġsp ots
Ġrep airs
Ġrec re
ĠCar l
ĠB ase
Ġeinzigart ige
ĠV ide
Ġcontinu ing
ĠVarian te
ĠH it
Ġoper ated
ĠPet ers
ĠIn g
Ġem bra
ĠSl ot
Ġst aat
Ġvolunte ers
Ġa menities
ĠSon y
ĠHam burger
viron ments
ĠMay be
ĠA B
ĠG ute
Ġdirect ory
ĠVerb ind
I CH
k Ã¶
all as
ĠS zene
uis ine
Ġsuch e
Ġdire ctions
b lock
ĠAt tra
or fer
Ġsh irt
Ġsu ite
Ġfl ights
Ġair craft
re iten
ĠZeit raum
S im
Ġb att
Ġconf igur
s creen
st isch
Ġle ichte
b led
Ġro w
ĠKing dom
ĠSchÃ¶n heit
ĠL A
Ġverschieden er
ask a
Ġbede ut
Ġexcept ion
ĠDar stellung
ĠAud i
z ellen
Ġbe le
Ġlif etime
et ooth
ch o
ĠH ub
form at
reit et
k rit
ĠTh ree
ĠDurch fÃ¼hrung
Ġpolit ische
Ġpack aging
ĠH als
ĠC ond
ĠFe ed
Ġqu e
p el
Ġbeg onnen
Ġrequ ests
ĠerklÃ¤r te
ĠVis it
ĠOffic er
z esse
Ġcomp uters
Ġge pfle
ein anders
Ã¶r ung
Ġwieder um
aj a
ĠEntertain ment
H ello
Ġw Ã¤ren
ĠL ate
E nd
ĠV illage
ann y
ĠBestand teil
ĠP rior
ĠF la
ten se
ĠBud get
he ast
p es
Â ¤
est ra
Ġmark ed
kÃ¼n fte
Ġt alented
le ments
S port
Ġt one
ĠT hr
ack te
st age
ĠG lauben
7 3
Ġc oc
Ġcor respond
Ġhum ans
ĠA venue
ĠT alk
Ġz one
ĠC ab
kir che
ĠSt one
Ġver ab
Ġsy mp
ĠT ry
ĠFe ier
7 1
u an
Ġst ake
ĠWohn ungen
Ġk Ã¼nstler
iz ieren
UN G
l angen
ĠZ ul
nde te
re chnung
St art
ĠE ck
Ġk r
sch m
ĠO il
bar a
Ġg erecht
Ġab wechslungs
Ġ19 60
Ġcompl iance
Ġent f
Ġdies mal
Che ck
201 0
Ġcaus ing
ĠSenior en
Ġer led
s ervice
Ġl adies
Ġt ritt
Ġw ave
ĠS ammlung
Ġre ducing
ĠSchw ier
ĠS ydney
Z eit
er ung
ious ly
Ã¼r k
ĠKar ls
ĠÃ¶ff entliche
erma ÃŁen
ĠH yd
ĠCamp ing
ĠOrd nung
c ra
Ġch er
Ġprepar ing
Ġbek annte
Ġprior ity
ĠW ars
Des cription
bere cht
ific ial
Ġet abl
Ġarr ival
ĠN u
ĠjÃ¼n g
N ote
ĠD usche
ĠC ool
Ġconfl ict
il ly
ĠN iveau
Ġthem es
Ġein iger
ig ation
Ġge il
vis or
Ġrepla ced
Ġs ending
bÃ¼ cher
ĠM ental
Ã¼t ze
licher weise
Ġa rom
Ġwhen ever
iet ies
Ã §
Re ad
Ġange passt
Ġb undes
Ã¼ l
esen ted
Ġr ib
ĠBe arbeitung
ĠRes ort
ylvan ia
Ġto ys
Ġgel angen
Ġbas ketball
Ġcreat ivity
Ġle ck
ge ht
ĠPreis en
Ġbird s
Ġan gel
Ġan zeigen
Ġeigen er
ĠGu ard
Ġintens ive
c enter
Ã¤ st
Ã¤ mm
Ġer fahr
Ġverb inden
ĠMÃ¼n ster
Ġb acter
Ġinde ed
Ġdep ot
Ġexpl oring
Ġpassion ate
Ġc um
Ġrelie f
8 4
ĠS old
IN E
Ġim pl
Ġille gal
em an
ersch rank
Ġh Ã¤ngt
ĠE C
ĠV irt
lie fer
Ġsem i
m ir
ĠV el
ĠGen au
ĠIr ish
ch or
amm elt
Ã¼ st
ĠSp a
Ġperfe kten
ĠerhÃ¶ hen
ĠAb satz
ĠCap ital
Ġf er
Ġc ul
tem peratur
ĠBe ine
ĠS ant
ĠSch ad
ĠCh or
Ġdeb ate
Ġa ust
ĠM indest
Ġlist ings
ĠPa per
ĠB ach
ĠL if
l an
re ff
ĠV illa
ĠM atch
ĠfÃ¼r s
Ġview ing
Ġhop es
ĠGast geber
ĠPat rick
ĠUr heber
ĠM inn
ag entur
Ġm ic
ok umente
Ġhand y
ĠFe atures
re gel
Ġbetroffen en
ĠBro t
Ġun ex
Ġh inein
Ġsch icken
ĠB in
ĠI V
ank ing
Ġapply ing
Ġb ands
ĠW urz
bast ian
Ġw is
8 3
k eln
Ġra ck
ĠgrÃ¶ÃŁ eren
Ġer hoben
Ġzuk Ã¼nft
I O
Ġpro ve
ĠG B
umin um
maÃŁ nahmen
ĠB ass
ren ce
Ġdurch schnitt
ĠWebs ites
ĠUntersuch ung
f ig
Ġget ragen
fÃ¼hr ten
Ġfal sch
Ġele gan
Ġorgan isiert
usst sein
ĠS ucht
ĠL ag
Ġle ague
Ġst ages
Ġcontrol led
ĠKe ine
Ġb old
ig entlich
ĠB at
ell ite
Ġsl ots
Ġinvol ving
ĠN C
Ġpro t
ĠKont o
New s
Ġscient ists
Ġh its
Ġsit zen
Ġsav ed
Ġphilosoph y
ir urg
ĠTick et
ĠP ed
ĠJ unge
Ġbo ot
Ġbas ically
ĠJust ice
o ires
Ġsp a
Ġpar allel
Ġprom pt
Ġstat istics
S M
ĠSch okol
Ġart istic
201 9
Ġem b
ad ed
W eit
ĠM iami
Ġproblem los
ĠT en
kon om
crib e
I hre
ĠU kraine
Ġb id
le ister
ĠMotor rad
ĠSom etimes
Ġglo be
Ġlands cap
Ġconsum ption
U r
n itz
ĠGer ne
Ã¶l f
ĠO hr
Ġher o
ĠVers orgung
st unden
ĠWork shops
ĠC ase
ĠSt ick
gang s
Ġ7 2
lin ed
Ġge prÃ¼
Ġg iant
othe ken
Ġg lauben
Ġfunction ality
Ġse ctions
Ġspe akers
Ġcou ples
Ġcontrol s
Ġtrack ing
Ġbesond eres
Ġref resh
W S
Ġges te
Ġt ape
res ted
ĠMer cedes
Ġak zept
urr ently
rol og
Ġ199 4
p ost
Ġinv ite
ĠQu elle
rich tet
Ġpaint ings
ah a
Ġerst aun
7 4
ĠK linik
iv a
ĠAn ge
G H
an en
ĠTra de
ER S
ĠL en
Ġdrink s
laut omaten
T op
st rom
aus end
ar on
ĠAb lauf
os m
ul ating
Ġautomat ic
ĠB ere
in cluding
ĠL LC
G ro
ĠC reative
tell er
Ġpack ed
fÃ¶rder ung
ĠC ivil
ĠC redit
and al
Ġcol oring
Ġschwier ig
ĠA u
Ġverbess ert
Ġw estern
Ġgen auer
ĠDien ste
id as
pe ction
Ġcarry ing
it ate
it ting
ĠO x
ail ing
B ack
ĠAn ne
lag wortet
Ġerreich bar
ĠPersÃ¶n lichkeit
ĠBe ide
ĠHel p
ĠPorn os
ĠP ier
ĠSer ien
ĠH TML
ĠU t
leit ungen
.: .:
Ġein richten
Ġad mit
Ġg ate
be ing
Ġsc ored
Ġsouth ern
zÃ¶s isch
Ġspe aker
Ġho ffe
ĠRed e
ĠJew ish
Ġaus sehen
ĠAus fÃ¼hrung
ĠSchw imm
Ġdep osit
re p
Ġul tra
Ġver arbeitet
ĠE mer
ĠIn fo
Ġanx iety
W ei
b aus
Ġw esent
Ã¼ cht
Ġen vironments
Ġed it
Ġprefer red
Ġa est
Ġflex ibility
ĠBl Ã¼ten
Ġact or
ĠÃ¶ k
hn ung
ibr aries
k ommt
Ġsw ing
wirk ung
h agen
Ġsc ulpt
Ġperform ances
mÃ¶ bel
ĠD rei
Ã¤ fts
Ġbe it
ĠCor poration
ĠSym bol
amen te
ĠO N
Ã¤n ner
Ġmit ten
Ġge fe
ĠDo es
ĠMet al
ĠfÃ¼ hlt
kur renz
ĠÃ¼ber rasch
s inn
Ġverbind et
ĠF uss
Ġse ed
Ġsp ont
ĠVer hÃ¤ltnis
sprech er
ĠT ai
glich keit
ĠVorder grund
Ġeg gs
Ġl ip
Ġmehr fach
reich es
Ġact ing
Ġwe ib
Ġset up
ĠPfer de
Ġelig ible
ĠPart n
ograph ie
Ġdevelop er
An geb
ĠfrÃ¼ hen
Ġ14 0
Ġf ence
ap h
Ġstra p
ĠJe an
ĠRab att
ĠWettbewer b
rein igung
r Ã¶
ĠRe ifen
c ut
ĠH air
Ġneigh b
ĠstÃ¤r ker
Ġso fern
ĠmÃ¶ gliche
Ġm g
ĠF unk
ĠProdu cts
ĠGen uss
Ã¤tz ung
t l
ĠE astern
h otel
ĠRein igung
Ġe gg
il dern
Be fore
Ġcontain ing
ĠMach ine
end ed
la p
Ġ5 1
Ġverste ht
u ous
we ich
Ġvis ible
Ġtable t
Ġzeich net
ĠHa fen
Me ine
ĠEqu ipment
h op
Ġ ~
und ry
ĠSch reibt
Ġbelie ves
ĠEinkauf s
ĠEn s
u ary
Ġsh ots
jahr es
ter y
p ons
Ġev olution
Ġc ush
ap el
ĠWerk zeug
L ear
Ã¶r m
ĠVict oria
ĠFur ther
Ġcomplic ated
Ġbet rieben
Ġt ournament
leist ungs
W Ã¼rttemberg
Ġth erm
Ġfl our
Ġun kompl
Ġcom pe
ĠSe ason
Ġre ichen
Ġdem ands
ĠTh ailand
ĠAl kohol
Ġ5 6
ĠSel f
9 1
ĠHaupt stadt
ĠH aup
ĠL atin
Ġl Ã¶
Ġra cing
Ġpl ot
gesch oss
Ġdra wn
ĠU RL
Ġappro val
wÃ¼rd igkeiten
Ġf lying
ol n
ĠC reek
ph a
sh irt
ĠJava Script
au g
b ein
Ġz erst
ver letz
ie ter
ĠG reg
Ġauf gebaut
Ġall gemeinen
mp el
inu ier
Ġredu ction
Ġleb end
ff ek
ĠTr ends
ordin ary
Ġattend ing
ĠSpan ien
ck te
ĠSing les
Ġchamp ions
ĠP ok
ĠL aser
ĠEs c
ben e
ĠEr schein
Ġcomp act
onym ous
x ic
ar l
able d
ĠUr teil
ent h
ĠM io
Ġaus zu
ĠBe hÃ¶rden
ĠNach wuchs
ĠSte el
Ġun verbind
Ġver Ã¶ffentlich
Ġcl ip
wor ld
Ġtelefon isch
Ġoverw hel
it o
ersch utz
Ġalle ged
D aten
b art
Ġsorg fÃ¤lt
pt on
ĠBook s
Ġdro pped
ĠPol ize
ĠFot ograf
ĠD ance
bau er
Ġconsider ation
ĠAnn ual
Ġshap ed
ĠI M
Ġ20 20
ĠIll inois
ĠR yan
Ġmeisten s
ra ges
b ound
Ġd unkel
Ġfand en
Ġrelig ion
ĠInternets eite
ier tem
ĠKrit erien
Ġpass word
ĠKosten lose
lÃ¶s ungen
ĠParte i
ĠMe et
Ġgr ant
ĠP ause
ĠG Ã¶t
Ġqu er
teil ungen
Ġtr ips
Ġstr ict
Ġt v
tel s
ĠAl pen
ĠBaumw olle
Ġd ipl
Ġre ife
Ġgo ogle
ĠDe f
ins on
g f
ĠAm ateur
ĠKe vin
rau ben
ĠSch merzen
F ree
Ġn ic
Ġshe ll
Ġh es
ĠE D
c ific
Ġt ill
ro ffene
Ġdep ends
Ġdescrib es
ic ate
ĠR ight
ist ent
wo hnt
Ġnoch mal
ĠGem einsam
ĠBrit ain
ĠM D
Ġge arbeitet
ĠFl ash
ĠPh ase
ste ig
ĠRe ife
Ġa partments
ĠE P
ll a
Ġch ances
ĠEin trag
Ġstand en
Ġvor bereitet
Ġveget ables
u ben
Ġein schlieÃŁlich
ĠH aving
ĠHe art
Ġfound er
ĠVert rieb
mat ik
ĠgrÃ¶ÃŁ er
Ġnetwork ing
Ġvul ner
ĠKa iser
ĠOri ent
ĠV ent
ĠÐ ²
ĠC afÃ©
Ġan sehen
Ġposs ess
ĠA ktionen
pos ition
D ire
ĠArbeit nehmer
Ġrequire ment
ĠgewÃ¤hrle istet
Ġkor re
Ġst uck
ens wert
Ġk il
ĠForm ular
ĠH ost
Ã¶ hnen
rÃ¤ fte
f are
Ġverschieden sten
leg te
Ġvolunte er
de p
wissen schaften
umn i
Ġtiss ue
off er
Ber lin
ĠN Ã¼rnberg
Ġsh ift
Ġcheck ing
ĠAuf grund
Ġaus wÃ¤hlen
Ġtele phone
Ġshap es
ĠPat ient
pie ce
ĠArch iv
d ach
Ġgain ed
al i
spart ner
O G
es a
ĠG i
Ġengine ers
Ġhighl ights
ĠH ay
wend ungen
Ġofficial ly
Ġruh ig
Ġspecial ists
Ġsuggest s
Ġdram a
S chn
at um
ĠFin ance
ĠTab ellen
Ġparticip ation
Ġteil nehmen
ĠTay lor
Ġg ram
ĠA tem
Ġpul led
ĠSw inger
ĠK ath
Ġget roffen
S uper
ise x
Ġinst ruments
ĠGel Ã¤nde
O B
Ġsmart phone
ĠG PS
af el
Ġopp osite
ous es
Ġcert ificate
Ġbe zahlen
ĠVers uch
ĠV R
ver ordnung
lÃ¤ ufe
Re c
Ġfocus ing
for mer
Ġverz ichten
s ylvania
Ġbe half
Ġunter sch
ĠInvest ment
wer ben
Ġin itiative
ĠCom ments
Ġconsult ation
op her
ĠBra un
emin ar
Ġther ap
Ġrapid ly
ĠAr izona
i ary
min ute
frei heit
Ġaff iliate
ĠPsych ologie
es tet
Ġver stÃ¤nd
Ġver Ã¤ndern
Ġdel ivers
ĠMin istry
ĠPro p
Ġres idence
r ated
ĠO ak
ĠFre md
Ġexp osed
ĠschÃ¶n er
C omm
ĠH u
Ġsh oulder
% ,
ĠMe chan
Ġbran ch
ĠhÃ¶ch sten
Ġphen omen
ĠW alter
ĠPro t
ĠBud d
al ition
M ag
ĠProz esse
bÃ¼ ro
Ġs etzte
Ġre action
ch ise
Ġst able
ĠO pp
Ġmet all
": "
Ġn Ã¼tz
ĠV o
8 8
ĠG lass
ik eln
ĠTh ough
Ġpromot ion
ĠPak et
Ġm ad
le e
ĠS D
m ass
ĠK G
ĠThe atre
Ġke ys
ĠReg ister
ĠDate i
Ġex istence
ĠSch reiben
iz abeth
ĠMark us
Ġwalk ed
Ġprodu cer
gesch nitten
ĠHÃ¶ hen
ĠNied ers
O ff
ĠBundes liga
Ġoft mals
P erson
ron ik
K E
op y
Ġeng ines
ĠKir ch
ĠBank en
umb ing
Ġrepresent ative
ĠAN D
S el
Ġsome what
ĠWh ich
ts Ã¤chlich
Ġcomp ress
Ġexp ansion
Ã¤ ger
Ġsign ature
ĠE L
Ġstr ip
Ġh ate
Ġh orn
ĠP ir
Ġex clus
ĠTe ig
Ġtra iler
Ġult imately
Ġn utzt
ik ationen
Ġsome where
Ġtr usted
Ġspe zif
ĠWelt krie
ri ers
il ige
ĠF alle
ĠOn lin
Ġyour s
4 00
ĠGemeind en
cel ona
ĠTechn ologien
ĠglÃ¼ck lich
Ġacc eler
Ġkeiner lei
Ã¶r d
w alk
ĠP ink
ĠG reek
Ġge prÃ¤gt
ke i
Ġme ines
lim ited
B ew
Ġschn ellen
gew and
in nt
ĠAm t
other apie
Ġeng aging
Ġmort gage
Ġgenu ine
f rom
ĠBe wohner
Ġal gorith
Ġre ception
ĠProdu ct
Ġerziel en
K lass
O U
ĠH ug
ow a
P G
ĠH appy
Ġtext ure
Ġz ul
and e
ĠK anz
ĠAn other
is ers
we ig
ie be
Ġre pl
rÃ¼ cke
Ġbre aking
ĠVeranst altungs
and o
Ġbeautiful ly
ĠGet rÃ¤nke
AN D
ĠHen ry
ĠY et
ĠKa ffe
ĠMem bers
g ten
sche ch
an bieter
pro gram
ĠDaten bank
ĠHard ware
ĠF u
Ġgarant ieren
ĠErgÃ¤n z
sch iede
Ġcan ada
ĠOr th
Ġn ord
Ġcontain ed
Ġt we
ĠHilf s
s ity
un ters
ĠE gypt
Ġwant ing
z iger
al itÃ¤t
ĠAn im
Ġde ut
Ġarg ument
M in
Ġl aser
ĠRe chn
ĠTh ink
ĠSpe kt
Ġsy nt
en ne
st ern
ĠVer mÃ¶gen
Ġplan e
Ġgreat ly
Ġregard less
Ġprakt ischen
othe ke
vors itz
Ġspecial ized
H R
ors es
ĠL i
ver halten
ĠK h
Ġcur riculum
Ġestim ated
our en
P L
Ġd raft
ir ty
ĠSchu ppen
ĠE ver
Ġdis plays
ĠInd ex
Ġdi y
Ġsk i
ĠDe ad
ĠÃľb ungen
Ġpower ed
ĠVerÃ¶ffentlich ung
ft igen
ĠRes ume
Ġletz ter
Ġeffiz ient
Ġrest ore
Ġter rit
Ġocc urs
laim ed
Ġpromot ing
ĠFoot ball
k op
O h
Ġscre ens
ĠE sp
schul d
ĠSÃ¼ den
ol ge
ell es
Ġle af
ring e
ĠOr te
ĠDom ain
il ation
ĠWeiter bildung
Ġdeep ly
fl anze
Ġmuse um
E X
rach tet
in ity
reib e
Ġim pression
Ġperson nel
Ġover look
ĠtÃ¤ glichen
Ġd rag
ĠH ind
ĠZ entral
Ġco aching
Ġjud ge
ĠA ge
g iving
ĠSt or
ĠAr g
Ã¤ch s
leg ten
Ġn utz
ĠT ools
ie ht
part y
Ġamong st
b ungen
im eter
hÃ¤ng ig
ĠSch rif
gel assen
ĠÃ¤ uÃŁ
Ġliter ally
ĠW edding
Ġr anging
Ġge zogen
ĠP interest
Ġinst antly
ĠjÃ¤hr lich
ch at
ĠL ad
Ġt esten
ĠN az
ĠDie go
Ġoffen bar
Ġwhe els
sk i
Ġd ialog
Ġk Ã¼nftig
ĠJ ordan
o ir
ĠZahl ungs
Ġst amp
cht isch
Ġreve al
ĠW he
il itation
ĠD IN
ĠSch ritte
Ġ5 3
Ġges undheit
Ġtrans mission
Ġsatisf ied
Ġrub ber
Ġtranspar ent
ĠN S
Ġentwick elte
en ed
Ġnew est
Ġtradition ellen
Ġf iction
ES S
ĠFor est
Ġha up
w eiten
ĠE i
Ġacc ord
str ateg
ĠzusÃ¤tz lichen
ĠW agen
Ġimpro vements
E ven
Ġf illing
ĠR oute
Ġstor m
Ġbehand eln
ĠVier tel
ĠH Ã¤nden
ĠC abin
ang le
ĠEntscheid ungen
Ġdeta ill
S ee
ĠC her
clud es
Â §
Ġverm utlich
Ġt act
ival ent
Ġtit les
F ran
sp unkt
Ġdest o
ord ination
Ġprem ier
Ġexpress ed
Ġdram at
Ġw ard
Ġdar gestellt
F ahr
Ġtra g
Ġint ent
ĠUn fortunately
Ġlegisl ation
ĠF as
Ġauf treten
Ġoff ene
er a
Ġa de
as ie
to col
Ġnewsp aper
ĠE ffe
ĠK y
Ġkont inuier
ins ichtlich
Ġgesch afft
Ġso b
ip fel
Ġbege g
Ġg ast
Ġas ide
Ġacqu is
ĠBe ispiele
fahr ten
Ġcons cious
if ting
hÃ¶r de
Ġg rÃ¼n
ĠEin t
Ġsur ve
stit ut
Ġab ges
ĠEr stellung
rei he
ĠL assen
app ed
ĠBr idge
gien e
minister ium
imens ions
om ing
ĠK Ã¼r
Ġdivers ity
Ġexerc ises
Ġherunter laden
ĠMag net
Ġr ated
Ġde fault
Ġh ip
ose x
Ġgirl friend
Ġeins etzen
Ġdis cl
Ġorganis ations
i our
Ġpr ime
ĠPrem ier
T wo
f Ã¤llen
Ġle cker
Ġdam aged
Ġpropos al
ĠErwachsen en
Ġlow est
u its
ĠB C
os c
ĠHol y
Ġfab ulous
ĠEing ang
Ġp ace
Ġst ro
Ġsc rew
att an
Ġadvant ages
ĠD ialog
Ġste ckt
Ġrec ruit
ĠFl ach
h ers
Ġch est
Ġout comes
ĠschÃ¶n es
ĠA z
ĠD R
Ġse am
be utel
Ġens ures
Ġdecor ating
Ġein zu
ĠH ouston
ow ing
ĠTra il
ĠKinder zimmer
M I
ĠH arm
ĠA V
Ġwor n
ĠVor stellung
erm in
", "
Ġbe halten
Ġobject ives
Ġc ameras
ĠM asse
ĠL och
od ing
ĠHaw ai
is ms
Ġattra ct
Ġam ounts
gem Ã¤ÃŁ
Look ing
ĠErw art
ĠMat th
ch ain
. âĢĻ
Ġh Ã¼b
ĠSh ort
U C
Ġtax es
ĠGrÃ¼nd ung
K inder
al m
Ġencourag ed
he bung
ĠW ag
Ġst range
ĠO F
st ood
ĠC B
ĠR SS
ith ilfe
ĠReg ionen
h our
Ġbe aring
Ġge omet
Ġber ichten
Ġmaintain ed
Ġto y
Ġne utral
ĠNach frage
ĠInd ustry
Ġve gan
ĠAuss icht
ers p
ĠStrateg ie
ĠS ide
Ġh urt
Ġin tense
ĠS W
ĠSh opping
gesch lagen
Ġther apeut
ĠBre ak
P oint
b eln
Ġgra u
Ġdiagn ost
Ġent ering
hyth m
ĠH Ã¶ch
Ġprofession ellen
Sch on
Ġ Ø
ronom ie
æ ľ
ĠDe fin
Ġinter action
O f
v et
Ġes cape
An other
ĠPart ie
g ely
ĠN ormal
ĠBundes land
Ġretire ment
O pt
ĠM ang
rÃ¤n ken
Ġp uzz
Ġe hren
Ġal ive
ĠBre ite
w is
Ġnu clear
ĠKompon enten
M r
Ġver letzt
ĠPf licht
ĠTurn ier
Ġton ight
ig sten
ĠO d
ĠHighl ight
ph ia
ĠS zen
ĠAus nahme
com mer
Ġcry pt
ĠIn frastruktur
Ġform ula
ulin ar
Ġb oss
Ġz ertifiz
um fang
ĠTÃ¼r en
Ġbe mÃ¼
ĠH ir
st ren
Ġgel ingt
Ġs itzt
ok en
Ġstor ed
Ġcert ification
Ġbisher igen
k ing
on ia
ĠE hr
ĠEr ic
i essen
ĠW arm
Ġmechan ical
y ll
g Ã¤ng
in stall
Ġbo ards
Ġto ilet
Ġmanufact ured
Ġrel ation
ĠergÃ¤n zt
Ġcustom ized
J ohn
ĠB urn
ĠW C
ound ed
ĠH Ã¤ndler
Ġintegr iert
Ġper mission
ĠWissen s
ĠF utter
ĠH ills
of il
Ġgener ated
Ġtr igger
Ġversch w
Ġdemonst rate
Ġzentr ale
Ġtalk ed
ĠEntwick lungen
Ġnorth ern
Ġelectric ity
ro ph
m Ã¤r
Ġb lau
Ġsp in
8 1
Ġge gangen
ĠAr z
ps y
Ġ199 2
B L
Ġ Ñģ
T O
Ġw ed
Ġmy th
ĠF avor
ĠSt iefe
ĠPer fect
Ġopt ional
zeich nungen
Ġbenef icial
Ġm ig
le mented
ĠVis ual
z um
ĠNe ver
Ġo bst
Ġbeliebt esten
ĠFor der
um pe
ĠAn gehÃ¶r
ĠKl ar
ĠKind es
Ġunus ual
Ġch ines
ish es
Ñ ĩ
sch merzen
ĠComm on
Ġfra u
ĠRead ing
ft ige
ran ts
ĠDel hi
Ġrelax ing
n acht
Ġact ress
Ġcrit eria
ĠV ice
Ġman che
Ġrom ant
Ġpray er
H och
Ġover view
ĠSehens wÃ¼rdigkeiten
l Ã¤nge
Ġbre ite
Ġpersonal ized
ĠBez irks
ĠD ro
Ġgen e
Ġbest immen
us en
ĠJ am
Ġauf merksam
Ġinj ured
ĠT ob
ĠVog el
ĠS tellung
Ġun known
z ust
ĠEv angel
Ġexp ort
ĠSl ots
ĠgewÃ¤hrle isten
Ġst ations
Ġeffe ktiv
do ors
ĠEntsp annung
Ġsh arp
ĠM un
ug ht
ĠHaus es
Ġch ronic
ĠA fr
ra ce
Ġ199 3
ĠAr me
ĠVor stellungen
ĠBe at
Ġrel ative
f as
ĠB A
Ġfr ischen
ĠQu ick
yl inder
Ġb elt
ĠV ari
ĠO cean
Ġoccur red
ĠD NA
ĠK Ã¼nd
Ġges und
Ġsupp lement
Ġsupp lier
Ġvict im
ĠH ur
Ġkennen lernen
ĠGrÃ¼ nen
N ov
Ġappl iances
B ahn
ast rop
Ġemp ower
ĠSc iences
Ġaccur acy
Ġeinzigart igen
R ed
Ã¶r sen
Ġwonder ing
Ġsp ir
Ġobserv ed
Ġg rie
Ġins ights
Ġd ritte
ĠM ath
ĠAn schlieÃŁend
Ġauf nehmen
Ġvis its
ĠInd ep
ĠMult i
ĠS auer
Ġg ap
k ern
k ord
Ġg ym
ĠAv ailable
ĠG a
ac on
V om
Ġt ired
Ġf ried
f rag
Ġb one
ĠC ash
ĠK ino
zeich nete
ĠG h
Ġcon vert
em pl
ĠF inal
Ġher itage
Ġsc ores
ĠEr b
ĠAf ghan
Ġerinn ern
ug ier
ĠX box
Ġfac ed
organ isation
Ġj ahre
vers ion
ils on
ie ber
ĠK in
Ġag ed
Ġsecond ary
ĠkÃ¼mmer n
ĠB L
T L
th ur
st ufe
Ðµ Ð½
sie he
w inning
ers atz
Ġwas hing
Ġall erg
ĠEx change
ethod en
Ġsoll test
ĠRe pr
st he
Ġeinget ragen
R ad
w inkel
Ġse asons
g arn
n b
st ab
ĠC ut
Ġst ability
ĠF aktoren
ĠVit amin
Ġsuff icient
Ã ±
Ġexpl an
ĠN avig
h s
Ġc in
ĠBer eit
Ġerz Ã¤hlen
P at
ĠT ipp
ĠSe bastian
Ġ6 6
Ġdra in
ĠgroÃŁ zÃ¼g
L a
st ic
ĠN ie
Ġpercent age
Ġl ens
ĠH yp
Ġch ic
Ġsich ere
ĠIns gesamt
Ġempt y
k asten
w Ã¶rter
or er
Ġredu ziert
Ġaim ed
o ft
an es
Ġcare ful
fass ungs
Ġla id
Ġverh indert
Ġp iano
Ġdi agram
ĠColumb ia
in formationen
Ġy ield
ĠH itze
ĠL ay
Ġmach e
AR T
ĠIll ustr
Ġbewer ten
Ġzusammen gestellt
Ġcompat ible
ĠR ome
ged e
ĠNach halt
Ġrequ ested
ĠElect ric
Ġbeteil igt
ĠD unkel
Ġer rors
Ġmount ains
ĠÂ °
ĠCo aching
jÃ¤hr iger
Ġauf gel
mal ink
ĠMar g
ĠMus kel
reg ungen
Ġexam ination
and el
Ġbeh aup
Ġg laube
ĠMet rop
Ġfif th
ab schluss
ĠIn gen
adel phia
Ġd unk
Ġent itled
ĠPlay er
th at
ĠMem orial
ĠF R
Ġste igt
Ġrec ip
ĠF inn
Ġer werben
geb ra
Ġind ire
ĠSen ate
ĠL ib
ap ed
ĠBe ziehungen
ĠMal ays
ĠAngeb oten
Ġinterview s
D abei
Ġr ou
ĠCh a
Ġexam ine
m ess
Ġg ingen
ĠL ov
ĠTra ge
ĠB ull
Ġar rested
ĠMan chester
Ġintellect ual
M o
Ġc ab
ĠT ests
Ġ1 10
Ġfall ing
olit ik
Ġbase ball
Ġb unch
ĠS G
ĠBeaut iful
H otel
Ġpleas ant
Ġw achs
ĠRe iÃŁ
ĠKrÃ¤ uter
ĠTour ismus
z enten
ĠP ad
tend o
ĠIndustr ial
Ġt ags
Ġr ising
ĠHoff nung
Ġexp enses
Ġwei ÃŁen
ĠprÃ¼ fen
ĠDem okrat
Ġeig nen
ing ham
ut ies
Ġemer ging
Ġnutrit ion
ĠS MS
ĠE ier
ĠSw iss
Ġend ing
ĠmÃ¶glich erweise
Ġrespect ive
ĠScot land
r ite
Ġn ob
la us
geb nis
c s
st anz
ĠSo fa
Ġinfe ction
i ology
Ġp atch
ĠO nt
Ġab ilities
Ġrepr esented
Ġnormal en
Ġpotential ly
ĠPrÃ¤s entation
Ġsophistic ated
ĠD oc
erv ed
pen se
ro chen
ĠP L
ĠHochzeit s
Ġw aters
ier er
Ġcur rency
Ġla wn
ast ing
ĠAb teilung
P f
p ur
ĠL aptop
ver k
ĠVal ent
] ,
Ġg ig
Ġb au
ĠD A
Ġ19 50
ĠKl ick
Ġdec la
Ġschlaf zimmer
Ġf ib
mitglie der
ĠE V
ĠTrans fer
Ġschwar zen
Ġinvent ory
Ġim per
Ġatt itude
Ã¤h nt
Ġpregn ancy
reg on
ersch ein
ĠHaus halts
ac ed
ĠC ore
Ġcomp os
fÃ¼ gt
ĠOber flÃ¤chen
fÃ¼ll ung
is ure
ĠI ron
rÃ¤ der
Ġhier fÃ¼r
B N
Ġt ie
m ungs
ĠSa ar
ĠN orm
Ġbeant worten
B en
ing le
ĠR ail
Ġle it
kom fort
Ġh orm
ĠL G
Ġge be
ib l
ile y
ĠFreib urg
Ġl yrics
ĠBru der
ĠW Ã¼nschen
ĠBe ing
ĠGe ile
ĠSt ars
8 00
ĠRei hen
ĠSp enden
B ox
k ter
Ġlau tet
Ġman ip
âĢ¦ )
Ġenthus ias
le ute
Ġgel iefert
Ġp ics
ĠT R
gebÃ¤ ude
em pf
Ġequ ally
Ġfrei will
Ġcontinu ous
an ter
ĠD ick
ul ted
tell ten
Ġstr ive
ĠLin ien
Ġz og
pp chen
ĠVer lauf
Ġcolle agues
ĠDigital isierung
es ota
fen ster
ĠJ ur
ĠIn halten
ĠEntwick ler
Ġkn ock
gÃ¤n glich
com fort
Ġem ails
Ġfot ograf
ĠR al
ĠErn st
ce ived
m g
Ġm ild
ĠSp ur
ĠK andid
ĠFl uss
Ġlight weight
K le
Ġch a
Ġsuper b
Ġoff ens
ger ufen
Ġpred ict
Ġspect acular
B undes
ĠW ichtig
ĠW affen
Ġpla in
ĠDou ble
ĠC ann
ĠEn gel
ĠPenn sylvania
Ġf ern
Ġro ots
ĠAbs ol
ĠF unktions
be handlung
je kts
Ã¤l en
Ð¾Ð ²
Ġvan ity
Ġf Ã¤hrt
E U
Ġroad s
Ġengl isch
ĠVer z
Ġbet rachtet
ĠGro ÃŁe
ĠKlass iker
as hed
Ġre ly
Ġass embly
ĠWerk statt
ĠDate ien
/ -
ĠAuf wand
Ġto mat
se a
Ġspecific ations
ĠErinner ung
A merican
it uation
ĠG T
Ġro ten
Ġt ier
ul ator
Ġvict ims
Ġvergleich en
Ġein sch
ĠF igur
ĠKon zentr
ĠMr s
m eter
ĠPro jekten
Ġacqu ire
ĠKÃ¼hl schrank
ĠAssist ant
Ġdire kten
ĠAg entur
ĠStat us
Weit ere
T rans
Ġde part
Ġvibr ant
Ġc ig
ge ted
eten zen
F amil
cript ions
Ġclaim ed
ÑĢ Ð°
Ġehemal ige
d ar
Ġtrans actions
Ġbeste henden
Ġange kÃ¼nd
M ake
K omm
Ġdur fte
Ġbesch lossen
Ġstrong ly
ĠMen Ã¼
ĠFl Ã¤chen
hÃ¤lt nisse
deck ung
G reat
ĠInd ones
et ze
Ġrele ases
Ã¤hr ungs
ĠL etter
Ġhead ed
ĠO K
Ġlim its
ĠZwe cke
p flanzen
am ine
Ġstatt finden
D ann
Ġcom edy
ĠMar ine
b earbeit
ĠUn s
Ġass et
S om
Ġm ob
aus bildung
Ġwarrant y
k g
ar o
ot yp
Ġtra ditions
nah m
Ġwatch ed
ĠFl Ã¤che
Ġaccomp an
k Ã¤
ĠF ischer
Ġr ender
Ġpersonenbezogen er
ĠH Ã¤user
Ġcur tain
ĠBar celona
ĠHaft ung
ies o
d ale
Ġvor gesehen
Ġspiel te
ĠEnter prise
Ġfascin ating
Ġg gf
ĠH i
Ġse ating
Ġhas n
ical s
Ġmo lec
ĠAkt uell
Ġin du
ĠAn gabe
ĠHe idel
ĠCustom er
Ġs ought
ĠÃĸff nungszeiten
b ul
Ġh ing
Ġpr est
Ġthous and
Ġhaup tsÃ¤chlich
m uster
ĠR eit
ĠSch atten
ip ts
Ġbroad cast
Ġw om
ĠBesch reibung
Ġzunehm end
un ion
Ġhead ing
Ġtemper atures
Ġbek am
Ġdivid ed
Ġn om
ĠAn griff
ĠEnt fernung
ĠJed e
Ġe book
Ġy e
Ġbeeinfl ussen
L ink
Ã¤ llig
Ġun zÃ¤hl
nehm ung
ĠC ro
ĠBek annt
ĠEurop as
ĠF ed
mark et
Ġa ustral
ĠBe handlungs
Ġres ident
ĠCh i
Ġpoet ry
Ġh ide
ĠG R
Ġassign ed
g ess
ic ts
ĠTh ai
Ġesc ort
av al
ĠOrig in
ĠO ft
Ġwork place
ĠhÃ¶ here
qu ate
olog isch
AL L
ĠStep hen
b Ã¶
Ġp ets
Ġge boten
r us
Ġse eds
Ġcomp osition
Ġexc ellence
ĠC L
Ġzw Ã¶lf
Ġrem od
aun en
ĠOrganis ationen
Ġt ours
Ġsurround ed
ĠVerkauf s
Ġunex pected
G ood
b auten
m ans
Ġintell igent
Ġschwer en
ĠKart off
Ġsumm ary
ĠT reat
ĠU C
Ġlast ing
Ġren cont
ĠPl Ã¤tze
oen ix
Ġwo hnen
ĠGar age
ĠWo hnen
ĠK ul
um a
ĠIn halts
Ġflex ibel
Ð ·
ĠStÃ¤d ten
F S
Ġverd ient
ĠFr ucht
M ot
Ġde pression
fol ger
Ġdecor ative
Ġunters ucht
ĠBr ian
ro g
ĠB h
Ġr as
qu est
ĠBe ck
ĠEin stieg
Ġre friger
sp f
Ġ7 00
tag on
th is
ĠEr klÃ¤rung
fra uen
Ġp ant
Ġab road
ĠRec ords
d ates
r ika
it ual
C ol
Ġsch lieÃŁen
Ġtrans action
Ġw Ã¼nsch
ĠPro cess
ĠO P
ï¼ Į
uch st
land schaft
Ġ199 1
ĠzuverlÃ¤ss ig
pÃ¤ ck
famil ien
on ne
ĠS AP
ĠAr n
ifiz iert
Ġinitial ly
Ġshel f
Ġbr ut
Ġtransl ation
k inder
Ġc ow
ĠK u
Ġext ent
I st
Ġ5 9
f oot
ĠkÃ¶n ne
Ġunivers ities
h st
Ġam p
Ġlar gely
Ġinsp ire
Ġ16 0
d re
ĠStar tseite
Ġdef ine
ĠGemein schaft
Ġf acebook
Ġfind ings
Ġpriv ile
Ġnar r
ĠExper ience
ĠBewer bung
bar es
w ischen
Ġm ann
Ġ198 9
ĠT enn
kn Ã¼p
Ġb aking
R em
s itz
Ġshel ves
Mit glie
ĠSchul ter
ĠRath aus
Ġs tet
Ġpass end
osmet ik
c i
ĠZ auber
Ġgeziel t
Ġapp ointed
Ġco operation
G O
N S
Ġ5 8
ĠNam ens
ĠF resh
ĠH essen
get s
ĠUS D
Ġclos ing
ĠKolle ktion
ĠAuf tritt
Ġabgest immt
Ã¶ ren
Ġn aked
ra cy
end ent
aus schuss
ĠBlu etooth
p reise
Ġf en
ĠG ift
ab is
ert ifik
Ġcont rovers
ĠBes ten
Ġbro ke
ĠSk i
Sh irt
fÃ¼ llen
Ġcorrect ly
Ġunter scheiden
ĠTar if
ĠVarian ten
lo ver
Ġcelebr ated
ĠWik ipedia
Ġversat ile
Ġev il
ĠGra ph
ĠSchÃ¼ lern
ch ild
we ist
ĠA achen
Ġm oral
ra ul
Ġge Ã¤ndert
Ġha ck
fle chte
use hen
Ġth esis
Ã¤t t
ĠÃľ berg
ĠW ellen
ach us
W or
Ġconsult ing
Ġentreprene ur
Ã¼ hle
ĠAn regungen
ĠRett ungs
ĠB od
ĠH old
ust en
Ġsch lagen
ĠTre ff
Ġcontrib ution
ĠSter ne
own ers
port al
Ġin her
Ã¼ te
ĠBar bara
N ur
j u
ĠEr ste
end ant
Ġse es
Ġbeach es
W A
Ġk ar
Ġst imm
Ġ( âĢŀ
Ġun gewÃ¶hn
aus ende
ĠgenÃ¼ gend
Ġsich eren
Ġput s
Ġdra uÃŁen
ĠStÃ¼ck e
Ġerg ibt
Ġdivers en
Ġextra ordinary
ĠTer ror
ĠEink ommen
k ers
Ġwor ship
Ġste uer
ĠZust immung
ĠBath room
id al
Ġsh ade
ĠG ive
F unktion
Ã¼ck sichtigt
Ġterm in
B ec
k w
Ġr ings
ĠbeschÃ¤ft igen
Ġm l
Ġz ero
sch ritt
Ġleg it
ĠSit uationen
ĠD ritte
Ġcan vas
Ġproduct ivity
Ġconstru cted
y ling
it able
b aden
Ġposs ibilities
Ġcontain er
ĠKal ender
Ġerw orben
Ġb ol
ĠB arn
m ind
Ġk alt
Ġse gment
Ġmus cles
Ġblog s
F T
Ã¼nst ig
ste igen
ob ald
Ġget an
ĠG lÃ¤
Ġsh oe
ĠBr as
Ġcheck ed
ĠJ ay
ut age
kl usive
sch le
ĠAd obe
? )
Ġl amp
ĠR ost
th rop
Ġbank ing
ĠD est
ĠB art
ĠV eter
iz on
amer ikan
K omp
ĠKle ine
Ġenh anced
S k
ĠV intage
fil me
ĠK Ã¼nst
ĠAl te
Ã¼ bers
Ã¼ cher
ĠUhr en
Ġcop yright
ob b
ĠKon kurrenz
Ġdeutsch land
Ġfulf ill
W o
e u
l isten
ĠN AS
âĢľ )
hab ilitation
Ġnotwend igen
ĠJ agd
Ġbeob achten
ĠC ry
ĠEr mitt
Ġemot ions
B ereich
ock er
Ġutil ize
Ġbes tellt
Ġgradu ated
ĠModer ne
kÃ¶ mm
Ġde eper
ĠYou th
ĠDes ktop
ĠProte ction
ĠS ix
ol er
Ġ5 7
ĠBer ater
Ġacqu ired
k onstru
ĠW ire
ĠO m
Ġquant ity
ĠR ights
Ġaus einander
ĠKore an
ĠErkrank ungen
ĠJ r
Ġbesch reibt
H z
Ġ3 50
Ġsing ing
Ġwechsel n
we b
Ġgros se
Ġin k
Ġcomp letion
Ġâ ľ
stÃ¤r ke
ĠR ound
Ġgarden s
imens ional
ĠL uf
ert ation
Ġout come
n i
ĠW en
ĠB em
Ġse id
Ġpro c
atch ing
ĠRa uch
Ġw achsen
ĠâĢ Ļ
voll er
Ġamaz on
iat ric
B E
ĠP ain
ĠMe eting
ĠBes itz
Ġevalu ate
D C
Ã¼ h
Ġ1 30
Ġer Ã¶ff
ĠSe ction
Ġ6 3
Ġ6 9
Ġbra un
Ġ9 00
ĠÃ¶ fter
auf t
Ġbewe gt
iv ate
ĠL yn
ĠCl ark
200 9
Ġserv ers
Ġreturn ing
ĠTats ache
ĠO regon
Ġauf zu
ĠAr gent
ren zt
ĠGra u
ĠSch merz
Ġg la
ag a
ĠJ Ã¼rgen
Ġdi abetes
Ġbege istern
Ġprin ts
Ġz ip
ĠNe uro
ĠStra f
j et
ĠAn satz
p la
Ġun gefÃ¤hr
Ġsm oke
ĠSchreibt isch
un Ã¤chst
Ġgew ann
ym ph
ĠKrie gs
f lo
Ġab zu
Ġcal m
Ġste am
Ġtar geted
ĠD ining
qu enz
Vers ion
Ġp up
ha ust
Ġangen eh
ĠerlÃ¤ uter
Ġto ler
ĠM other
ĠN Ã¤ch
Ġport able
ĠOl iver
ĠIndivid ual
ĠHand lungs
ĠVer band
pl us
ĠAmb iente
art igen
ĠLud wig
y es
ĠgÃ¼nst ige
ĠB uck
ĠL izenz
Ġtrans formation
ĠKreativ itÃ¤t
m acht
Ġrepe ated
ĠThe orie
bre ite
qu et
Ġgather ed
ĠArbeitspl atz
ĠI hn
oot ing
ĠLoc ation
ĠIn tens
ĠWe gen
ĠUl tra
ar ia
Ġsaf ely
Ġmitt l
sch uh
ĠSche iben
f ir
ĠBe in
Ġtempor ary
Ġp ounds
ro se
ĠSp ons
ĠSe pt
ĠDisk uss
Ġbe ziehen
Ġz entral
Ġpract ition
ast urb
Ġcontrib utions
Ġgather ing
Ġso ccer
bra uchs
Ġstat ements
ĠA ve
Ġparticip ating
Ġ( âĢľ
Ġcon ventional
scha ff
ĠPl ant
Ġcut s
kennt nis
Ġcompl iment
Ġansch auen
ang t
Ġlo ose
us al
ick el
Ġant ib
st s
ĠK Ã¶
ĠAn pass
Ġoptim alen
ĠO ma
ĠRo hr
Ġobvious ly
ĠAuf lÃ¶sung
will igung
s etzung
ra ub
ach ed
Ġgu ides
Ġkla re
Ġunmittel bar
Ġc rown
inc oln
Ġfant ast
achus etts
Ġam ateur
Ġcons erv
H E
Ġsc ope
ĠGrie chen
sh a
Ġcomb ines
ĠSchool s
â Ĩ
Ġc er
Ġra ising
Ġbo ots
ĠQu ellen
Ã¶p fen
B esch
ber ichte
Ã¼r zen
ate ful
Ġsp iele
bet reuung
Ġcoun cil
if est
ĠPr inc
Ġicon ic
reich er
ĠÃ¼berprÃ¼ fen
Ã¼r zt
ĠN at
Ġshe d
Ġpat ent
ul iert
ĠBe ob
Ġs our
Ġk Ã¼nd
ath ers
ĠBild schirm
ĠSoll ten
T ro
Ġfr ische
ĠVor lage
ĠInnen stadt
Ġju ice
Ġdivor ce
Ġremark able
ien e
Ã¼ck e
Ġapplic able
N atÃ¼rlich
ĠN ad
Ġsn ap
ĠH op
Ġadop ted
Ġoper ational
flÃ¼ ge
ĠM eld
Ġstrong er
Ġlay ers
gere chnet
writ ing
ĠSup reme
Ġver teilt
Ġnachhalt ig
Ġd okument
r ung
Ġw ake
ĠK iel
ĠIm ages
ĠJe ans
ĠW arn
k asse
ĠD allas
sen z
ĠFre ien
rieden heit
W eiter
u ana
ste henden
ĠEben so
ĠGraf iken
ĠF ick
Ġeinges tellt
Ġerw Ã¤hnt
Â ½
ĠG M
Ġele cted
ĠOpt ik
ĠKon ferenz
Ġt Ã¼rk
ĠAll en
Ġfant asy
Ð ¿
C ommer
Ġexpl os
ĠVict or
ĠL ange
Ġex ecut
ĠWir d
R C
Ġdevelop ments
ĠAtl anta
ĠS ize
Ġimp lemented
gespr Ã¤ch
B lack
ĠM s
ĠJ ess
ĠPan or
ĠSp ark
Ġur sprÃ¼nglich
ĠOnlin esh
ĠUr ban
ĠSoll te
Ġhol es
iel ten
ĠMiner al
Ð ¹
Ġcon j
sto ÃŁ
ĠS O
ĠP as
Ġfin ishing
ĠRÃ¤ um
geb iete
ĠSol id
b els
ok ed
ĠVerÃ¤nder ung
Sel bst
Ġh ind
am ik
Ġgra ce
Ġtour ist
D an
c ell
h ot
ĠT ony
ĠSp rachen
ĠLe x
ĠAb stand
Ġengl ish
C ons
L Ã¶s
Ù Ħ
Ġa merican
Ã¤nd ige
Ġhum or
Ġannoun cement
ĠN ah
esch ool
d on
âĢ ³
ĠÃľber w
Ġm ouse
ĠBel ow
Ġattra ctions
ĠvielfÃ¤lt igen
ie ger
Ġbe ige
be an
Ġass ume
ĠHaus halt
Ġord entlich
ph ase
P res
ĠS A
Ġn ude
ĠT ype
aus stattung
Ġtre m
Ġhost s
Ġn ose
if fen
ell ers
ĠSe attle
ĠEl izabeth
Ġsob ald
ĠT rÃ¤ger
Ġex ists
ĠPl anning
ĠPh one
scha fter
ĠSex y
Ġhapp iness
Ġnecess arily
Ġst ruktur
ĠSp ot
Ġinstall iert
Ġcondition ing
Univers itÃ¤t
ol ly
Ġcon vey
ele ct
ĠKr ist
Ġadministr ative
h Ã¤ndler
ick ing
Ġlink en
Ġemploy ed
ĠMÃ¤n nern
Ġg ang
Ġst olz
Ġim plic
Ġpro test
Ġden k
Ġw Ã¤chst
ĠH Ã¤
ure au
ag te
Ber eits
Ã¶ h
ĠNe ed
Ġpubl ishing
Ġpark s
Ġmach ten
ĠFin ale
T ake
Ġgener ations
ĠAn hÃ¤nger
ors hip
Ġfar b
ĠTit ten
beg inn
Ġdis pos
app ro
Ġumfass ende
ĠL iga
Ġange kommen
Ġdist ingu
em on
our i
u tern
Ġn ennt
pr icht
Ġspe ichern
Ġdisc ounts
ĠPost er
Ġin halt
ĠAn zeigen
Ġpopular ity
Ġexpand ed
ĠVers icherung
f utter
Ġw are
Ġexclus ively
n ame
Ġbe zÃ¼glich
isch of
Ġdies el
ĠAust in
re f
um an
um pen
of a
Ġbas iert
ĠEnts te
haus es
ĠBet on
ĠMitglie dern
ĠMa ÃŁe
ĠPhil adelphia
Ġar chite
ĠprÃ¤ z
Ġany more
ock en
ĠHand eln
I mp
f ly
ĠD ream
ĠG ay
ĠK ult
ster dam
ĠUnivers al
Ġfire place
B as
Ġgran ted
ĠfranzÃ¶s ischen
ĠPhilosoph ie
t at
Ġt ons
oin ts
Ġ9 6
Ġmin istry
ĠT OP
Ġk enn
ul ieren
Ġroll ing
K reis
fer ien
Ġfrequ ency
ĠC oc
ĠBas el
ĠAdmin istr
Ã Ĺ
Ġany way
ĠVor feld
Ġorgan isieren
pack t
ĠE tw
Ġfunktion ieren
Ġal uminum
fÃ¤ ll
ĠWill kommen
ĠRep ublik
Ġspann end
Ġefficient ly
Ġm ask
et isch
fe ktion
AT ION
ĠErfolg s
ĠR ena
ver brauch
Ġed iting
ĠFran ken
ĠW ales
auf gaben
Ġtit led
ĠDI Y
r ates
or neys
Ġbess eren
k olle
ĠG ross
wend et
Ġh insichtlich
Ġk ons
ĠJ osh
r ische
Ġthe atre
st ore
ĠP ie
fol ie
ĠSte ck
le kt
Ġentsp rechen
ĠMo on
ro it
Se hr
Ġjack et
G ew
ĠM ember
Ġfor dert
Ġum welt
ĠOr ch
ĠFl Ã¼ss
Ġh osp
Ġun ion
Ġins pection
sta at
Ġc ats
Ġal ike
Ġde aktiv
ĠKlass ische
ĠSchuppen flechte
s ers
Ġst ammen
rop fen
, .
ah ne
ĠNe ck
legen heiten
ĠCommer cial
ĠN ature
ear ing
Ġep is
Ġindic ate
ĠStÃ¤r ke
at iver
aum en
ĠTr icks
Ġklein ere
od a
ĠBe am
Ġabs or
Ġdistrib uted
Ġweap ons
Ġb ills
ĠM oney
Ġver geben
ĠLand wirtschaft
Ġunver gess
En gl
Ġschwar ze
Ã Ĥ
Ġlo b
ĠAr chitect
Ġbre iten
Ġlang jÃ¤hrige
ĠWahr heit
P ass
d ienste
f unction
Ġor ch
Ġbelie f
ĠJahres zeit
S ec
ĠE cke
ben s
ĠAus sch
J an
Ġk reat
ĠL arge
Ġfra ud
S erie
ĠA x
Ġbr ick
Ġfal se
it ur
ĠI l
fra id
Ġcompe te
Ġber Ã¼cksichtigt
Ġr ichten
od urch
Pl ay
stit ute
ĠNin tendo
Ġdr ives
ĠStre ifen
Ġstrug gling
f uÃŁ
Ġre de
h igh
ĠD un
Ġpe pper
ĠChallen ge
S eite
Ġal b
ĠDe p
ĠAl p
Ġgest al
Ġin ex
ter e
Ġsuffer ed
H el
ĠB ou
ĠE X
Ġvoll kommen
ĠSch lieÃŁlich
Ġentertain ing
t able
ĠMit t
kl ar
ĠPr ince
d el
ĠFore x
vent ions
ĠLie bes
Ġdiscuss ions
ĠFÃ¼hr ungsk
ĠCamp us
Ġoffiz iell
ish ment
Ġren owned
ĠAdv anced
ĠSt immen
Ġtro ck
a is
ĠTh us
ĠSchw ester
Ġreach ing
ĠSmart phones
olog ists
ĠM aschine
Ġconvers ion
Ġd ollar
ĠN avy
ĠDe ep
Go ogle
Ġlocks mith
Ġj ene
Ġfarm ers
Ġers etzt
ĠGar antie
ĠParte ien
b ungs
ie wer
Ch ar
sprech end
Ġsubstant ial
ĠC ape
Ġsch lÃ¤
ĠMel bourne
b ranche
ĠW esten
Ġgre ifen
ĠÃĦnder ung
brit ann
ĠA y
Ġer for
Ġen forcement
Ġloc ally
P O
ĠZu ge
ah oo
S ex
ĠG renz
ĠBl att
Ġhand eln
ane ben
Ġremain ed
ĠP RO
Ġhier zu
anc ouver
Ġdep loy
crib ed
ĠstÃ¤r ken
ĠF red
est one
Ġab hÃ¤ngig
Ġdire kte
w oche
ĠOb wohl
osp el
ĠHel fer
Ġverd ienen
B B
ĠD ave
ĠSch Ã¶ne
ruck t
Ġinvest ments
ĠDav is
ĠHier bei
ĠG ur
Ġfit ted
kehr t
ĠTÃ¼r kei
old s
Ġint ention
Ġoccas ions
ĠGren ze
h u
Â ©
an leitung
Ġp upp
Ġz iel
utz utage
ĠSpe isen
Ġmass iv
Ġwundersch Ã¶nen
Ġehren amt
b lau
ne ider
Ġmus lim
Ġcirc uit
Ġst o
ĠBe leuchtung
Ġrel ating
ĠWith out
Ġpromin ent
Ġor th
ĠPl ug
ĠDank e
Ġvertra u
h arm
le un
ĠLog istik
le ep
Ġlo cker
elt a
ĠI ce
produ ktion
ĠConst ruction
Â ·
ĠM ajor
Ġnoch mals
rÃ¤ um
ĠGew Ã¤hr
ĠB ond
Ġha z
ĠEx cel
bereich en
Ġflu id
ĠT otal
Ġget estet
Ġdel ighted
ĠLie der
it ative
Ġvor genommen
Ad d
ĠImp ro
ĠZÃ¤ hne
il ian
spro gramm
i y
ĠSp azier
H O
ĠN ase
ĠO sten
we ek
ĠRe form
ĠBrand enburg
ĠOnt ario
f Ã¶rm
ĠS K
ĠC art
rol led
Ġd achte
Ġ ï¿½
Ġf esten
Ġen er
ĠSt ich
ĠRe lease
Ġbet rifft
ĠD utch
Ġad ap
ĠVorauss etzung
H igh
d icht
r ige
Ã¼ck t
ĠSte phan
Ġirgend wann
ĠSim ply
ĠS end
ten de
Ġend g
Ġspezial isiert
ĠF ram
w eiter
Ġwork out
Ġiniti atives
ĠMinn esota
ĠVor aus
ic ide
cc a
Ġhar der
ĠT X
de cke
ĠNe uer
are tt
ĠSa fe
ĠStruktur en
D av
ĠB ased
our se
Ġganz heit
Ġpow ers
Ġh iring
ang ers
Ġdam al
ĠPortug al
ĠK as
Ġun n
ĠL ic
ĠB ene
Ġaccommod ate
? !
Ġb ub
Ġh ood
ĠO k
ĠTh Ã¼r
ĠMag ic
ĠNiger ia
ĠC ateg
oc al
ĠD ame
Ã³ n
l Ã¶sen
Ġ6 2
Ġk Ã¤mpfen
ĠAnwend ungs
Ġstrug g
Ġemphas is
ace ut
ĠSchul d
ĠBed room
fur ter
ĠB BC
Ġl ounge
Ġshould n
ĠBel g
ĠGleich zeitig
ĠHand t
ĠPol en
Ġchar ity
ĠProble men
Ġwas chen
Ġpregn ant
L ike
ĠO ster
Ġunder stood
ĠS S
ĠG host
ĠV in
Ġzu hause
ĠJ ak
Ġse he
qu elle
let on
Ġprogram m
Ġb ron
Ġrat io
Bec ause
d d
Ġshe ets
ĠPfer d
Ġpar ad
Ġpass ieren
ĠEle gant
Ġsudden ly
ĠS auna
Ġdram atic
ĠFrÃ¼hl ing
ĠUn i
le m
ĠS ig
Pro gramm
ĠRis iken
ĠApplic ation
Ġv ice
ĠR ick
Ġevery body
ĠKur se
Ġkon zip
Ġdecor ation
ste p
ĠChampions hip
Ġappar ently
Ġa x
Ġt ou
ĠSch les
Ġmedic ation
Ġw odurch
Ġthe ater
ĠFern sehen
ation ally
AC K
ĠEvery one
Ġdis order
ons in
ĠJose f
ĠStiefe letten
A g
Ġab und
rich ter
Ġtw in
f ire
Ġg host
gl anz
work s
Ġbro ker
ĠAlt stadt
Ġcontra cts
ä º
c al
un ikation
Ġvir us
T hen
Ġh unting
Ġhear ts
Ġ Ã¤lt
Ġbe fest
ĠF it
id em
Ġla undry
Ġassign ment
n icht
gra duate
ĠKap itel
ĠMill er
Ġf liegen
ersch af
Ġreview ed
Ġbehav iour
on i
ĠCh ange
ĠAnd ere
ĠKennt nisse
1 50
ĠA mer
Ġwohn ung
ĠStud ierenden
Ġwalk s
ĠSie ger
Ġunter nehmen
Ġse ctors
Ġwar ning
Ġcomple ment
ess ert
ĠSÃ¼ ÃŁ
p orts
Ġemploy er
M et
omen te
Ġarrang ements
Ġdes wegen
sp iegel
Ġsch rieb
Ġvent ure
ĠArz ne
Ġrom ance
Ġkling t
J eder
lich ten
ĠStud ios
ĠB irth
ath y
fÃ¼hr te
ĠBet roffen
200 8
Ġpost er
Ġinvol ve
isc onsin
ĠDub ai
6 00
Ġinspir ing
Ġsyn th
Ġerst klass
ĠÐ ¸
ĠSchm idt
V ideo
ĠC S
lie der
Ġletz t
Ġrepresent atives
ĠWider ruf
V iew
ĠC F
ĠFl ag
v ity
ld e
Ġren omm
Ġcampaign s
We b
Ġequ ivalent
ĠP ear
Ġa fraid
Ġf iber
Ġaus geschlossen
Ġsur ge
Ġener get
an while
t ail
ĠTr ib
ĠRepublic an
Ġnied rig
k ette
ĠM aus
Ġart ificial
Ġcir cle
ĠLang uage
wir ken
im ination
ĠC omb
Ġge le
ĠPr inz
ĠMon ats
ĠhÃ¶her en
V ol
Ġwith dra
Pro jekt
ĠK elly
Ġun e
ĠZahl ung
sie ht
Ġerweit ern
ĠGrÃ¼nd er
Ġsol cher
Ġenjoy able
Ġintegr ity
it ches
ĠF onds
ĠG lo
ĠSe lect
Ġback yard
Ġb ug
Ġf ung
ĠG row
Ġemploy ers
Te ch
ĠDat um
ĠL it
Ġout s
Ġco ckt
ĠM C
oo ter
F ollow
Ġsp okes
Ġperiod s
em ed
ĠO tt
ĠBesch werden
ĠSl ow
ĠO sc
Ġunter en
Ġcontract ors
Ġvirt ually
ĠverstÃ¤r kt
b ot
y ball
ĠR ichter
Ġcont ents
Ġupload ed
ĠGefÃ¼ hle
Ġb erecht
ver d
ott age
cre ts
ĠPriv acy
ĠWel come
Ġoffiz iellen
Ġbesond erer
Ġlaw yers
ĠK ansas
it ement
ĠMar ie
kl assen
Ġconsequ ences
Ġboy friend
ro hr
Ã¤mp fer
N etz
Ġdie jenigen
Ġste igen
ĠL isten
ĠKle ider
AT E
ĠFriend s
c amp
lic kt
ĠV W
Ġstatt find
Ġexperien cing
Ġsurf aces
f assen
ĠMar io
Ġsupp lied
Ġstr ike
ĠfÃ¼ llen
ĠKre bs
% )
à ¦
Ġeinz igen
Ġp our
Ġp ig
Ġlie f
Ġathlet es
ab ling
ĠDie t
el led
st art
St ation
ĠLand schafts
mann schaft
ĠRhein land
Ġr ufen
anc ement
the less
Ġcou ch
ĠÃ¶ff net
besch ichtung
Ġhe m
iff s
Ġbro thers
Ġfol gend
Ġsens or
ĠDies el
ĠCle an
al ia
ĠF ather
ĠAn sprÃ¼che
ĠSp l
fl ix
Ġbel oved
ĠEvery thing
mitglie d
. '
f ab
Ġd ancing
Ġwe ist
D enn
I X
Pe ople
Ġout doors
ĠBes itzer
ĠFr is
rat ze
ĠG un
Ġgra y
Ġdiagn osis
ĠK ohl
hab t
ĠP ra
Ġab and
Ġpr inter
Ġte uer
ĠDe ko
ĠGes am
ĠfÃ¼hr enden
over ty
s ub
st immung
ĠL isa
Ġumfang reiche
ink ten
Ġher kÃ¶mm
ĠVerl ust
ĠWissenschaft ler
F B
Ã¶ sterreich
Ġpro port
Ġprec ious
ĠAddition ally
D ass
Ġint ro
Ġan melden
ĠJ ason
ĠTh ings
Ġevent uell
zub auen
ĠEin tritt
ĠD M
ĠAll gemeinen
druck s
ĠArchite kten
Ġburn ing
ĠHein rich
Ġpil ot
kla h
ĠV Ã¶
ĠEin heit
âĢĿ )
rÃ¼ hren
stÃ¤nd igkeit
ĠNutz ungs
ĠEmp fang
Ġ {
Ġf rank
Ġrepresent ation
ild o
isse ur
K n
uch tet
Ġpr ize
Ġtra dem
hÃ¶r er
tember aub
V P
o ons
gen au
ed ition
ĠBu ild
ĠF ul
Ġsch Ã¼tzt
! .
ĠR ain
Ã¼hr t
ĠCon f
G l
Ġbed arf
Ġfacilit ate
Ġo ils
ĠC e
U se
ol and
Ġstream ing
Ġattemp ts
ĠStabil itÃ¤t
Ġs orry
Ġord inary
p op
z usch
erk ennung
ymnas ium
an ia
un ate
ag ger
htt p
Ã ¯
Ġc ord
Ġdis orders
Ġfrequ ent
Ġcom ic
per t
st op
out ique
atur al
ĠÃĸ k
Ġmult ip
Ġref und
ĠR as
m obil
ĠSch Ã¼tzen
Ġmar ine
mal en
ĠIra q
Ġt al
ak ul
Ġwholes ale
ĠMatth ias
ar r
ss ystem
Ġkein es
Ġstay ed
eint rÃ¤cht
Ġan genommen
Ġopin ions
. âĢ¦
i Ã¶se
ĠM aur
ĠE ffekt
ĠR ucks
Ġgew innt
verse as
ĠðŁĺ ī
u ct
ĠS L
pro p
Ġmeaning ful
ach ter
Ġconne cting
sc ale
Ġdah in
ĠE ag
Ġwild life
ĠPfe ffer
ĠVer brauch
ĠCh apter
ram a
Ġclos et
Ġprec ise
Ġrare ly
erk rank
Ġrepresent ing
Ġsure ly
Ġsat ellite
t ung
Ġoper ators
Ġactiv ely
Ġarm y
ĠNieders achsen
il ch
Ġfo am
v ens
ĠF OR
ĠKennt nis
Ġamerikan ischen
Ġw aves
an al
ĠRes ources
ĠFot ografie
ĠG E
ac o
Ġcoup on
Ġfru its
Ġf ahr
Ġgesch nitten
Ġdocument ation
Ġqualit ativ
ĠG ramm
Ġ6 8
lÃ¤ sst
Ġsleep ing
klÃ¤r t
Ġin se
Ġn either
ank a
par te
ĠWettbewer bs
Ġges unde
Ġsign ing
ĠNord rhein
ĠAff airs
Ġgros sen
Ġwis dom
Ġcar ing
Ġp ip
fahr ens
ĠSh ould
Ġcomb at
Ġluxur ious
F alls
in sen
ĠS ich
Ġsch ul
work ing
Ġbreak s
ategor ized
Ġdring end
T hrough
m aster
Ġpre vention
Ġpe ak
B R
N r
Ġs ke
Ġh ill
Ġh ielt
Ġre den
Ġjeden falls
Ġm p
Ġj ahr
Ġab geb
Ġcomp osed
ĠGesch windigkeit
Ġzeich nen
ĠToy ota
ĠEp isode
ĠB ike
ac le
omat ic
ĠPfar r
Ġgesp annt
ard o
Ġcomp ensation
ĠGespr Ã¤che
Ġrat ings
ĠM essen
ĠAus einanders
ĠD okumente
ĠLe wis
Ġcontract or
im edia
Ġkosten frei
m i
ĠS we
ĠC M
ag ements
Ġch ips
Ġbathroom s
ĠMotiv ation
ĠTran spar
Ġin tend
ĠUnter haltung
ĠCir c
ĠN ap
Ġle ichten
Ġmod ule
Ġrespect ively
Ġzuf olge
ĠFeucht igkeit
ĠE T
Ġzu gÃ¤nglich
Ġmod ische
ĠL ied
ĠV f
Ġreg ards
ĠAustr ia
He y
ul se
ĠT opf
Ġp interest
oc racy
Ġins pect
Ġmusic ians
So ftware
ĠOper ation
Ġsm oking
Ġimportant ly
Ġcharm ing
ĠspÃ¤t estens
Ġf Ã¶rdert
fer ences
Ġgot ten
Ġold est
bu ilding
ĠSalz burg
P reis
Ġform ation
ĠMass achusetts
sprÃ¼ ng
Ġf ake
Ġco pper
umm y
ĠKarls ruhe
ĠKon zern
ĠFinanz ierung
er te
ĠN FL
ĠEin stellung
kl en
Ġlo ads
ĠBundes regierung
Ġanal og
Ġn ail
ows ki
Ġbew Ã¤hr
Ġbelieb ten
ĠB och
ĠB enz
ĠCh annel
ĠTra ck
Ġdis covery
Ġgel ernt
ĠGlÃ¼ck s
Ġdress es
Ġrank ed
ĠgewÃ¼nsch te
b anken
d ated
cht ung
ĠRes ult
ĠBeg leitung
Ġbal anced
ĠS in
ĠI ss
ĠUrs ache
ĠProper ty
Ġc osmet
io xid
ĠvielfÃ¤lt ige
Ġev angel
Ġconsist ently
Ġb omb
abl en
ogn itive
Ġt ied
ĠG anze
Ġmem orable
person en
Ġtrav elling
ĠVer teid
ixt ures
ĠGeh irn
ĠOr ten
Ġweiter lesen
Ġnormal erweise
ĠP oker
ĠTe ppich
ĠB ush
ĠReal itÃ¤t
Ġcapt ured
V ert
ĠR aj
ab ad
Ġinteress ieren
ĠT ap
Ġfast est
Ġh ub
ĠK aufen
th an
ĠAn fÃ¤nger
Ġhinter lassen
Ġs ne
st Ã¤d
ĠTa uch
ĠKÃ¶r pers
s se
Ġlo vers
Ġod d
m ethoden
Ġn ackt
ĠP VC
ĠS icher
ver arbeitung
iss a
bo le
Ġrelax ed
ĠFig uren
Ġst ood
ĠSitz ung
ĠC reat
Ġvor s
u v
Ġeinz us
Ġt ennis
ĠF ell
Ġger aten
ĠHol iday
. /
Ġch ap
ĠAr men
tra ck
Ġvend ors
ĠVirt ual
ĠDo ctor
Ġrecht zeitig
ĠBl Ã¤tter
ĠMed ium
ĠProf i
org ungs
Ġh Ã¶rt
Ġact ors
D i
n s
isch end
Ġprote cting
str asse
Ġunivers e
? âĢľ
h ai
Ġm Ã¤nn
ĠForsch er
Ġempf ohlen
og an
n ormal
ro tt
Ġvers orgt
Ġopp on
esse e
R el
ĠT um
Ġmind s
Ġdiskut iert
em ade
sch wer
ĠEin stellungen
Ġfil ters
Ġo ak
Ġgest artet
ĠMann schaften
Ġdifficult y
ĠStad ium
Ġk reative
Ġw ins
Ġober en
Ġaccord ance
U K
Ġsch ein
ĠAuf lage
Ġhervorrag ende
klah oma
ĠTra ding
Ġpres cription
Ġrefer ences
IV E
he ll
Ã¤ b
Ġl ibraries
ĠIn tel
Ġcr usher
ĠTour en
Ġre chnen
ous ing
teil s
Ġsm ell
ĠTem plate
ĠGre y
in str
Ġd irt
fre ude
ĠD DR
bach er
ĠMad rid
Ġimpress ed
ĠM ahl
Ġl atter
Ġre act
ĠAus bau
ĠCo ffee
Ġberuf lichen
ĠFlex ibilitÃ¤t
J oin
s elling
z es
Ġst ack
pe zif
ins atz
ĠDes pite
IL L
ĠVere ine
Ġcomp rom
ult ane
ĠRes erve
ĠAutom obil
H C
l inks
p rakt
ende te
Ġerw eiter
ol as
Ġver folgt
Ġfl or
Ġfla v
N C
ĠDe cken
ĠChrist oph
ĠJed es
l ay
Ġprodu ces
Ġgew isse
Ġsl ip
Ġel der
J ugend
c at
Ġ ï
ĠB ade
Ġir rit
Ġhistor ische
Ġge wohnt
ĠÃ¼ber zeug
b Ã¶rse
Ġd uties
ĠRel ations
ĠAuf s
ĠH ER
ĠK lin
ĠDi abetes
ĠUrs achen
Ġlok alen
D et
w unsch
Ã ¸
ĠL incoln
ĠSt att
Ġmov ements
Ġregul atory
ĠTur key
ĠC ell
Ġgener ic
ĠPay Pal
ĠT C
ĠC hen
ĠK f
ĠK ok
Ġj azz
Ġg Ã¤ng
ĠRelig ion
Ġforec ast
m ach
Ġv el
ĠH IV
Ġwar tet
ifiz ierung
Ġenable d
ĠCast le
ĠKÃ¤ se
ie hlt
Ġk ap
Ġwe ird
ĠZe ug
ĠCho ose
Ġp ipe
gew inn
ĠAnaly tics
Ġwert volle
Ġunterschiedlich sten
ĠTrotz dem
F rank
ĠZ ivil
Ġersch ien
ĠSpie lautomaten
ĠN oten
ĠAuf trags
reg ion
ĠErfahr ungs
Ġ198 8
britann ien
or i
ur ities
Ġgen re
Ġcomple ting
Ġcontact s
Ġverurs acht
K l
ĠC ow
Ġem bed
Ġcolor ful
jo ys
Ġest imate
Ġum ge
ĠPl atten
Ġdec ent
sp ot
ĠM E
ĠAr sch
ges ell
Ġtechn icians
ĠStud y
ĠWohn ungs
Ġdur ation
for um
Ġ6 7
Ġhilf reich
Ġ Ã¶rt
ĠLook ing
ĠstÃ¤r k
B ER
Ġb ust
ab teilung
EL L
ĠEigent Ã¼mer
F ach
ĠT ruck
sp ired
Ġges prochen
Ġexc itement
ver hÃ¤ltnis
Ġcon vin
ĠGer Ã¤ten
ĠVerfÃ¼ g
up fer
Ġs onn
Ġv ine
Ġge g
Ġaus ser
beit rag
person al
West falen
Ġunglaub lich
ĠPro s
Ġwes halb
Ġr unden
Ġj en
Ġinvest ing
ĠAP I
Ġinnen architektur
Ġfreund lich
ĠEnvironment al
Ġd imensions
em ark
am pe
ĠMar s
Ġrest oration
Ġtail ored
sph ase
ĠP os
Ġbe weg
Ġfe ine
ĠVersand kosten
ast y
Ġloc ate
Ġessential ly
Ġwrit es
ĠIndian a
Ġb ull
rou s
ish op
hÃ¶ hung
Ġconfigur ation
ĠT ree
Ã¼ber greif
ĠFin ally
b und
Ġge ilen
ĠJahrzehn ten
ĠV ill
ĠGe gend
Ã ¥
Ġt iles
ig nete
Ġeas tern
Ġbacter ia
ĠS ug
fen ce
ĠTechn iken
and in
ier bar
Ġtradition elle
Ġang le
or fen
g nung
Ġh orses
ĠT ube
ffek te
Ġw inners
ĠD einen
Ġbe mer
ĠWe iss
find ung
Ġ198 4
Ġtw ist
ĠRep air
best and
Ġwundersch Ã¶ne
ĠWrit ing
Ġthorough ly
ĠErweiter ung
T I
ĠA kte
Ġemp find
m useum
Ġbe arbeiten
ĠAs yl
ĠTo ilet
gere chte
Ġelimin ate
Ġt urb
ĠS oph
ĠB alt
ĠI L
Ġover come
Ġtoll es
Ġcult ures
ent scheid
ĠW ould
Ġdocument ary
f ound
ĠAtl antic
V is
Ã© e
Ġdir ty
olit an
opt im
Ġbelieb te
E mp
ij uana
O ber
Ġcan cel
U I
Ġf ut
ver lust
Ġgef Ã¶rdert
Ġengine er
Ġur sprÃ¼ng
i i
Ġdurch fÃ¼hren
and y
ĠAr k
sh ot
Ġmod ified
Ġpresent ations
ĠSuch maschinen
ĠAccess oires
D ec
Ġlang er
Ġtutor ial
A ir
E ar
g old
ĠR ie
ĠEin bau
Ġmin eral
ĠS ri
ĠB ry
th en
Ġex ch
Ġrec ru
ĠN O
Ġrel iability
ĠMet ern
oper ative
Ġl oud
Ġdiam ond
Ġd ran
le mente
vers icher
ĠÐ ½
Ġerhe blich
ert al
ĠOt to
Ġs ized
on te
Ġm aker
an ies
ĠX L
Ã¤tz t
ĠStre cken
Ġvorhanden en
quir y
Ġl iability
Ġen joys
Ġsent ence
M L
ĠW erner
ro be
Ġentsp annt
Ġf t
Ġden kt
ĠSh ops
unic ipal
Ġprincip al
Ġchamp ion
ĠGemein schafts
m outh
st ick
ag ten
ĠSchw eden
ĠDurch messer
g anz
k uchen
ĠS ource
ĠT u
Ġsch Ã¤tzen
hand elt
Ġgel Ã¶
Ġumfang reichen
ĠGene hm
B is
b urn
Ġspann enden
Ġreag ieren
B re
oc ial
Ġend less
ĠKÃ¶n igs
Ġreve als
Ġexpand ing
Ġmoist ure
ĠL ok
Ġschw ere
ĠSp annung
ĠLe hre
amil ton
ĠMov ie
ĠP av
ass ion
fin ale
omb ination
Ġhor izont
Ġmer ely
ĠD ue
ĠP ant
ĠSp uren
Ġjewe ilige
herstell er
ĠW esen
Ġscreen ing
Ġwe igh
ĠUn it
Ġausprob ieren
Ġacquis ition
Ġcra fted
M ain
on ut
Ġad mission
a ver
ĠWh ats
Ġcle ver
ĠKonstru ktion
Ġqu asi
Ġmet ers
OR T
Ġtim ely
F est
p ul
and ra
Ġst immt
ĠJul ia
Ã¤mp ft
is burg
ĠBut ton
Ġde ar
Ġout let
ĠChr on
Ġchrist ian
Ġf ingers
iet ung
Ġp ione
ol s
ett es
Ġoper ator
ĠPoten zial
ĠF inden
ĠK ick
S il
Ġl as
ĠF ive
ĠG all
ĠN ein
lin ary
Ġmoder ner
Ð ±
Ġredu zieren
ĠMie ter
ol y
ad i
ĠEd itor
Ġref ers
ĠTro cken
k anz
ĠMÃ¼ ll
ĠgeprÃ¼ ft
h ose
Ġutil izing
be auftrag
Ġed ges
ĠA pfel
Ġwish es
Ġp ants
ĠAm sterdam
Ne xt
Ġcelebr ating
Ġwer en
Ġmist ake
en te
Ġme int
ĠBet racht
ĠTr ip
Ġnut ri
g un
l u
v ard
es telle
on ing
ĠUnter lagen
Ġ198 6
Ġinvestig ate
ĠAuss age
Ġfriend ship
wirt schafts
ĠE ure
Ġra b
Ġrun ter
vious ly
lÃ¤nd ischen
Ġw rap
ĠG am
Ġerfahren en
p Ã¤dagog
Ġy ards
Ġcop ies
ĠF ix
ĠL enk
ĠL abel
Ġab sen
ain ed
ĠSchwang erschaft
ch ing
Ġs orts
Ġn ations
Ã¶ff entlichen
Ġk rie
ial en
ĠL E
fahr zeug
ab er
Ġdies jÃ¤hrigen
Ġaff ili
gu ard
R o
ĠT in
Ġsteig ern
ĠAkk u
Ġret ro
ĠW ilson
Ġde leg
Ġsele cting
ĠTour isten
ĠP izza
Ġpro tocol
Im mer
Ġadjust able
ĠD Ã¶r
ĠPh ant
Ġmyster y
B usiness
ang ed
ild et
Ġprodu cers
ĠWork ing
gn Ã¼gen
f ish
ĠG ate
Ġcap s
ĠHÃ¶ch st
s an
wer fen
ager ung
Ġspec ified
Ġan passen
A ug
ĠL ohn
ĠKÃ¶n nen
Ġwei ÃŁe
Ġdauer haft
Ġd un
ĠG Ã¼n
Ġre gener
Ġapp le
ĠL okal
enn y
Ġqu ot
Ã¼n f
Ġconf ig
ĠWil helm
ĠâĢ Ŀ
ĠJ ane
los igkeit
Ġres erve
ĠFl at
Ġsubst ance
Ġok ay
d pa
oth ers
Ġpick ing
ĠAg ain
Ġground s
ĠK Ã¤ufer
ĠAn sicht
teil te
ĠGast ronomie
g i
se ction
Ġmeas ured
ĠÃľb ersch
Ġmatt ress
Ġsubt le
Ġd imension
ĠBez irk
v arian
Ġass ured
Ġball s
Ġheav ily
Ġposit iven
ĠÃ¼ber wiegend
Ġbet rachten
u ers
ĠE c
ĠEr z
Ã¼n kt
ĠKl oster
d isc
qu er
im i
schl Ã¼sse
ĠÃ¤lter e
Ġk ulinar
ests eller
ĠT am
Ġrep ly
Ġcap ability
ĠSign al
ĠErwart ungen
ĠS orgen
Ġle iden
ĠG il
Ġhohe m
ras cht
j an
om er
ĠTh or
Ġperson als
Ġbetre ut
Ġlabor atory
Ġgefe iert
Ġapp lies
Ġmechan ism
ud io
fre unde
Ġscr atch
ĠCert ified
Ã¤nd igen
ĠCour se
ĠF Ã¤lle
ver mittlung
Ġun like
ĠGew inner
ĠAuthor ity
ite te
ĠB uff
ĠW y
Ġdis aster
Ġtour ism
Ġh ott
ĠB Ã¼nd
Ġtechn isch
Ġverlei ht
g au
ĠN ations
Ġste m
Ġvar iable
Ã¼t ten
ĠApp ro
ĠMag azin
Ġpurs ue
ĠbegrÃ¼ ÃŁen
Ġnerv ous
x x
Ġdifficult ies
P ost
h Ã¤usern
ĠA partment
Ġbe an
ĠEr zÃ¤hl
ĠFr isch
Ġhab its
Ġowners hip
Ġbl ess
Ġshow c
ĠWeiter entwicklung
Ġmoment an
Ġerot ik
Ġte ils
Ġmo on
Ġgener ell
Ġsurv ival
ĠFernse h
ĠPh oenix
Ġk Ã¼nst
ĠK amer
Ġsc ar
Ġre zept
Ġwar men
Ġstruct ural
ĠHighl ights
e o
Ġglass es
Ġkom me
Ġbab ies
U P
Ð ³
Ġto wer
Ġl ern
Ġwe isen
Ġgr ateful
Ġnie mals
ic it
Ġmist akes
ĠL ounge
ĠNe uen
ĠOb jekte
ĠPoly ester
ĠUm zug
b ird
sch reiben
ĠI G
Ġte ens
Unter nehmen
ĠAnd ers
Ġchemical s
Ġspecial ly
gestell te
f i
Ġan ger
are l
Ġbetre ff
ĠIn iti
Ġsch licht
fin anz
& #
ol ars
Ġk illing
pp ers
Ġ6 1
Â« ,
Ġerhe b
S w
we iler
ĠÃľbers etzung
ĠRe zepte
Ġprofession ell
ĠKn ochen
Ġremov ing
ĠFe iert
ĠKat ze
Ġlauf enden
Ġw usste
Ġfl oral
Ġfol der
ĠEar ly
Ġse al
A K
rat zen
Ġmix ing
Ġexp lo
Ġsl ide
p ing
ĠV iagra
ĠQ uer
ĠSpiel s
o a
ah m
pr ises
Ġlie fer
bo ot
Ġgeb lieben
ĠN umber
ian ts
Ġdeutsch sprach
Ġer kunden
Ġsp are
Ġcons ent
bie tern
ĠMil itÃ¤r
ĠmÃ¶ gen
ry l
Ġreg ulation
Ġhin weg
ĠAt om
Ġrespons ibilities
ĠW isconsin
j amin
Ġm Ã¤cht
ĠA K
ther apie
Ġlet ting
ĠWe is
Ġinstall ing
P rÃ¤sident
r ass
Ġ19 20
Ġbas ement
ĠBal ance
ĠAfghan istan
ab ama
Ġst ops
Ġmeasure ment
ig ious
Ġv acc
ĠW Ã¤hlen
ow ed
Ġra um
I de
ĠS onn
ĠAl arm
ĠHoch schul
iph one
Ġprov ision
ĠEmpfehl ungen
ĠG ardinen
ĠR io
Te il
ĠRechts anwalt
Und er
Ġsurv ive
ĠM T
ĠH ip
Ġdr um
ĠGeh Ã¤use
Ġunkompl iziert
ĠT ore
if ted
Ġkosten g
Ġenthus i
be eren
Ġprov ed
row ave
f on
ĠTechn ical
ĠMet ro
it sch
if ier
Ġfuck ing
ĠL iv
tra ining
ĠOl iven
ĠF ine
Ġele ctions
Ġaktual isiert
Ġbe legt
ĠE k
Ġbeste hende
ĠmÃ¼s ste
voll es
Ġentscheid et
ĠIslam ic
og nis
Ġend et
ĠUntersuch ungen
re ct
ler in
ĠUnivers itÃ¤ts
Ġsus pect
Ġaggress ive
ĠMalays ia
z iele
Ġauf w
ick ed
Ġbet t
Ġprocess ed
Ġeinz eln
Ġtarget s
Ġwissenschaft lichen
ĠComp et
ĠGra b
ĠSchne ider
ĠOx ford
Ġde fic
Ġclass ical
ieg elt
ĠKrank heiten
g ate
Ġt ender
ger Ã¤ten
ĠBÃ¼ hnen
Ġunc ertain
Ġthink s
Ġvoc al
ĠH us
ĠH amm
Ġbl onde
ĠDel uxe
Ġk a
Ġconst ruct
Ġpot ent
zÃ¼nd ung
ĠangekÃ¼nd igt
ĠOnlinesh op
im on
schl iess
Ġfund ra
for ward
Ġmensch lichen
ĠPract ice
as a
Ġge heim
Ġsch merz
iger ung
ĠBas ketball
Ġwichtig ste
kur se
Ġan tw
gen Ã¶ss
Ġcour ts
zeug ung
t urn
âĢ İ
ĠP i
Ġcool ing
Ġmobil en
Ġk rank
ant ra
Ġ7 6
Ġret reat
veranst altung
ĠGesch enke
ĠPal m
andin av
Ġequ ity
Ġwa ist
ĠCommunic ations
Ġacc um
stre cke
e g
Ġakt iven
ĠMon th
ĠCle ar
Ġerleich tern
Ġzu stÃ¤ndig
ĠSt op
ĠIs lands
ĠSchauspiel er
H aving
ĠS creen
ĠEin willigung
Ġgew Ã¶hn
Ġexpl oration
f ix
Ġs amt
ver antwort
tw agen
Ġsequ ence
Ġzentr alen
ĠSch al
Ġcry stal
ĠvielfÃ¤lt ig
Ġbewer tet
st unde
ĠT iefe
Ġk nee
tell te
meld ungen
ig o
ĠL ade
Ġtown s
Ġswe at
Ġkombin ieren
Ġk onstru
Ġex haust
ĠDe ath
Ġbew ir
Ġresist ant
ĠDekor ation
ĠT SV
wo gen
ĠPl astik
Ġfram es
dep th
ĠFeed back
ĠSchrif ts
gl Ã¼ck
Ġshow case
ĠFlug zeug
ĠD Ã¼
fe kt
ĠM ale
ver tra
Er st
Ġsil ber
a fe
ĠK ings
gel aden
Ġint imate
Ġverlei hen
Ġeindeut ig
Ġer zeugt
Ġfran chise
qu ire
Ġmet abol
Ġanaly ze
ĠSpekt rum
Ġcoup ons
Ġs ed
Ġk unst
ĠRe zens
Ġwer fen
ĠWand el
Ġven ues
ĠV ancouver
bl Ã¤tter
Ä ±
Ġp izza
ĠT Ã¤ter
Ġbe ef
Ġk its
ĠV iol
T our
Â ¶
al g
Ġc uisine
ĠB ird
Ġoper ates
ĠSta ub
Commer ce
ĠL au
og s
Ġtr ies
Ġtechn ological
Ġopp osition
Ġcr isp
meister schaft
H is
Ġ/ /
ĠPal ace
ĠB ring
ĠL ater
Ġges ammelt
pro zess
ĠSchokol ade
ĠSt uhl
Ġacc used
Ġshort ly
Ġlieb sten
n ut
Ã¤ss er
worth y
ĠBe weis
zeit ung
ĠAnal ysis
on line
erv ers
Ġvar ied
Ġmag ical
umb ai
Ġnarr ative
he ld
enn er
Ġfin ancing
ĠPart nern
em eter
Ġer mittelt
ãĢ ģ
M ax
ĠK ate
a fter
r ia
Ġo ught
ĠB E
il ty
ĠPro b
Ġind ia
Ġbal con
ĠLaur a
Ġe ager
ĠA gre
ĠEr Ã¶ffnung
Ġarchitect ural
Ġt iefer
ĠLe gal
Ġsel ben
Ġgenau e
Ġgam bling
Ġge habt
ĠAuf nahmen
ĠAk ademie
Ġempf iehlt
G anz
ÃŁ er
Ġun ited
Ġ19 45
ĠVor gaben
ie gs
ĠF uture
ĠSch rank
uell er
K ont
Ġauf einander
ĠDe al
quis ite
P ark
ĠW A
arbeit eten
Ġcolle ctive
Her z
Ġepis odes
ink ing
ĠKn ob
ĠFrei will
D ep
Ġeinzigart ig
H ar
Ġakt ive
ĠBeg leiter
Ã¼ ste
dis ziplin
ĠK ugel
Ġver teilen
Ġdis ability
ĠBl ues
xy gen
Ø ±
Ġre isen
leb nisse
Ġz us
ĠWor ten
ĠKor re
Ñ ħ
ĠWass ers
ziehungs weise
Ġt ale
ĠS ac
à ¥
ĠM esser
ĠCost a
S B
ĠF irm
Ġlo op
Ġautom otive
ĠAutob ahn
ĠAn fragen
ĠAm ong
Ġcheck s
i Ã¶sen
ĠH ose
Ġacc ent
ĠAnd y
Ġ12 5
ategor ien
ĠRem ember
ĠG A
Ġins ert
ĠFl ucht
h me
Cl ick
Ġkinder zimmer
Ġdistin ctive
Ã¶ bern
Ġver folgen
Ġad m
Ġwell ness
Ġdownload ed
ĠI owa
ĠBet ten
bahn hof
Ġwundersch Ã¶n
ĠDemokrat ie
Ġass ociate
Ã© s
veranst altungen
ĠR A
ule gen
ĠGro ÃŁen
Ġkurz em
ĠK alk
ĠT rÃ¤
Ġle isure
ĠImmobil ie
ĠM ine
Ġge fahren
ĠEm ot
k amp
t u
Ġdem ent
ĠRe cher
ĠStaff el
Ġto w
ĠMar sh
ĠAnd erson
OR E
bre ak
per n
ĠSp rech
ĠFerien wohnung
stit ution
ĠÃ¼b lichen
om ed
AS S
Ġlang frist
Ġoverwhel ming
Ġverb reitet
ĠClin ton
Ġcol ored
Ġsw inger
ĠÃ¤lter en
ĠgrÃ¼ nen
g st
Ġg ib
ĠG Ã¼nstige
ĠAb sch
S m
å ¤
et tel
ĠM alt
Ġpur ple
ĠZw eit
ĠMuse ums
Ġh oney
am ents
ĠC ancer
Ã¤hl er
ĠBook mark
Ġtruck s
ĠBege ister
Ġj unior
ĠAug sburg
Ġ198 7
ĠSympt ome
ĠM assen
ĠF ile
end el
Â ¿
le uchte
ord nete
Ġcook ed
Ġvac uum
est and
Ġ7 8
Ġsim ultane
Ġsign als
Ġsystem at
mon th
Ġbul k
lie gende
ĠSpr ings
m acher
in ent
ĠDokument ation
ĠHalb zeit
e id
Ġl on
ĠRo ber
Ġheraus rag
ĠAg ent
p ay
s l
Ġn ahmen
Sch w
Ġimag ination
ĠSal at
Ġachie vement
ĠMerk el
St adt
ĠG ree
Ġj ugend
Ġviel seit
ĠZeit schrift
Ġfest gestellt
Ġpla cement
ĠIns besondere
Ġsubs id
op ter
ĠLe ucht
Ġimm une
Ġf uer
ĠH onda
Ġst itch
ĠhÃ¶ch st
b rechen
ar at
Ġab gesch
Ġover night
ĠUnter schiede
Ġgener ous
ĠMo z
Ġclean er
ĠCy ber
en falls
ĠG aming
ck ten
Ġad mitted
Ġprinc iple
ĠPerspekt ive
ĠPerspekt iven
ogra fen
reib ungen
Ġb und
ang o
ri o
att formen
ĠAd vis
ĠPar lament
ĠHom es
F oto
Ġ7 7
Ġclass ified
Ġfar ben
Ġaddress ed
ĠSteuer ung
Ġclin ic
Ġspect rum
ir s
Ġpro hib
kt iver
Ġadv ise
ĠM ama
ĠTeilnehmer n
p ed
Â Ĵ
Ġm akers
Ġein stellen
Ġver standen
ĠZ war
air y
gem Ã¤
Ġmarket place
Ġpeace ful
X L
Ġs per
ĠAb wehr
ĠKomm ission
Ġresol ve
ĠSne aker
Ġtrem end
f tet
an teil
Ġres cue
Ġ9 8
Ġausgew Ã¤hlt
ĠM ort
ir us
Ġle mon
ĠGe fahren
Ġeffect iveness
ĠFerien wohnungen
Ġaccompl ished
els on
ĠStadt teil
Ġex it
Ġir re
Ġbe z
Ġpl umbing
ĠChe ap
Ġs its
on sten
ĠI ke
Ġsh ades
Ġinvest ieren
ĠChe l
Ġachie ving
Ã ł
AR D
mat ic
ĠAnwend er
Ġregional en
Ġ Ù
ĠH altung
Ġun lock
Ġhund ert
lehr er
st Ã¶rungen
ĠTur k
ĠbestÃ¤t igen
ĠOlymp ic
Ġvor n
Ġdar stellen
Ġgew issen
Ġschl imm
Ġapprec iated
ĠFlÃ¼cht linge
f ox
ĠÐ ¾
Ġrent als
ĠS endung
Ġwork er
lÃ¤ uft
Ġunivers al
Ġanaly t
H in
Ġn Ã¶rd
Ã¤ le
Ġbevor zug
ĠSchwier igkeiten
Ġm essen
ific ent
Ġrepr Ã¤sent
ĠS ad
est in
Z iel
s ysteme
Ġvor an
sh ore
sche iben
sequ ently
Ġausgew Ã¤hlten
Ġw ander
Ġpl ates
ĠEin z
ĠÃ¼ber rascht
E inen
N och
Ġm art
Ġwel coming
ĠFerien haus
Ġhe aven
ĠSe le
zie ll
ir ch
pa ar
Ġre verse
ĠVer pflicht
Ġgl as
Ġfest ge
Ġthreat s
Ġbe endet
Ġge p
ĠAr ena
ĠChar me
verband es
ĠP ath
ĠZ ent
ĠZ entr
Ġdis cr
ĠM O
ĠAnth ony
Ġg a
Ġst ri
aw are
ĠTechn ologies
Ġum gehend
m esse
Ġgr id
ĠBau en
Ã¤uf e
ĠP ic
O pen
h Ã¤ngen
em ann
Ġinteress anten
ĠAtt orney
ĠFore ign
irurg ie
ĠH aben
if te
Ġall gemeine
erv ices
Ġke en
Ġhome work
other apy
Ġman chen
Ġcal c
Ġhor r
Ġarrang ed
ĠL ippen
Ġgesch ieht
Ġgrund leg
Ġbeit ragen
Ġs enten
Ġber uh
Ġadvent ures
Ġerk annt
S mart
Ġto ps
Ġver he
de te
Ġverl Ã¤ng
ĠAlltag s
N ational
ing o
Ġ8 8
ĠGebur ts
Ġles bian
g ard
ra h
ĠAus gleich
ash es
ĠAgr ic
Ġp overty
Ġdis abled
Ġbre ites
Ġparam eters
Ġcor por
Ġbuy er
Ġqu een
ĠBas ic
i op
Ġen cl
Ġvert ical
ĠgemÃ¼t lich
Ġvere int
n ur
sch ool
Ġdes per
Ġfre el
ĠEnt wurf
Ġpoin ted
ĠHo hen
L P
Ġvers us
gesch ichten
ĠKontakt formular
Ġang esehen
Ġfit ting
Ġtrop ical
c ements
Ġhol der
ĠDet roit
ste hende
aus wahl
Ġwhere ver
Ġ198 5
Ġbe ziehungsweise
sp ring
commer ce
Wor ld
Ġwei hn
ĠOptim ierung
v ideo
Ġal umni
Ġbutt ons
ĠPh D
Ġconvers ations
Ġfr ucht
IC E
Ġchurch es
ĠQue ens
Stra ÃŁe
end ienst
Ġpock ets
ĠInstitution en
S am
f inder
ol ogen
Ġcur ious
ĠPer haps
Ġpassen gers
ĠEconom ic
ĠkÃ¼rz lich
om ach
ver zeichnis
Ġ19 30
ĠNet her
Ne u
Ġcent uries
Ġindic ated
ĠfrÃ¼her en
ĠA F
quar ters
Ġtr im
Ġgek enn
a ar
iss ance
Ġoptim ization
Ġattra ktive
h ten
Ġlang fristig
Ġstock s
orient ierte
b ag
Ġdes erve
Ġsu its
che ck
ĠKon text
ĠDen ken
el ve
um pf
Ġvor ge
ĠGegen teil
Ġload ed
Ġkonkre te
K ar
h Ã¤
Ġt ire
ĠE ye
aus stellung
me chan
ĠAss embly
ĠTod es
. Â»
Ġo uter
Ġas ks
av ed
ĠMary land
ib bean
Pl an
nd rome
ĠA er
ad ays
L ife
m Ã¤nn
ĠD ad
Ġun iform
qu es
Ġtem plates
Ġkey board
Ġmeasure ments
Ġrepe at
ĠB ah
ĠK ard
Ġar range
ap olis
Ġverwend eten
ĠMiss ouri
Ġre ct
ĠR C
ĠR Ã¼
Ġaus sieht
Ġirgend wo
ĠLead ership
Ã¶ ten
Ġcon clusion
Ġspecial ty
Ġdete ct
ĠSchles wig
W C
Ġb orrow
em en
pr iet
anze ige
Ġlab els
ar is
up id
Ġback up
Ġconsult ant
Ġumfass enden
ĠSy mp
Ġhor ror
U E
d ies
Ġsc an
ty p
Ġpass es
Ġincor porate
h art
ster y
ĠHer kunft
Ġh ieÃŁ
ric ted
ĠA I
Ġi T
Ġres ulted
ĠD ental
ĠH ermann
Ã¼r tel
ĠMedik amente
ĠArzne imit
ĠD ays
Ġr asch
iz ations
ĠTab elle
Ġnachhalt ige
am bo
ĠB ott
ĠRe chner
ill on
Ġsub sequent
Ġpublic ations
Ġfor ex
Ġans onsten
ĠViel en
Ġo verseas
ĠDem ocratic
ak ult
zuf Ã¼gen
b ron
br aten
Ġben ach
Ġaccompan ied
ĠG ig
Ġel ast
Ġdeal er
ffe ctive
Ġdest inations
J ahr
ver lauf
Ġdemonstr ated
Ġrefle cts
Ġstrength en
Ġp ear
ahl en
ĠSu ite
Ġint rig
Ġinnov ativen
ĠPhot ography
Ġro te
ĠD oor
omm y
az ines
Ġbook mark
u ite
ser y
Ġgovern ments
itzer land
ĠAndre a
f este
Ġpop ul
ĠW ine
ĠO hren
igh th
Ġdurch ge
ĠAd vert
Ġfac ial
m ates
Ġmerch and
k Ã¶n
aus cht
ĠCap tain
Ġlegend ary
ĠDrit tel
usal em
Ġcru ise
u ition
Ġde partments
utsch ein
Ġleg acy
ĠReiÃŁ verschluss
Ġf ing
Ġv ollen
Ġun t
ĠAkt uelle
Ġerforder t
Ġe Bay
ĠAf D
aller ies
Ġst ruck
K urz
S to
Ġcount less
A utor
tz t
ĠRÃ¼ck seite
ĠNag el
Ġtransp aren
in ar
ĠR he
Ġsu ited
ph abet
Ġsome how
Ġelect ronics
est on
Ġfavor ites
Ġhy brid
ĠK ob
ĠL uther
ĠZ y
Che f
Ġnegot i
T est
Ġch ip
ĠHeiz ung
Ġf einen
ĠB apt
ĠR s
Mich ael
Ġr hythm
ting en
ĠNieder land
Ġexhib it
Or gan
Ġv ierten
ĠD Ã¤n
grÃ¼ nde
Ġh Ã¶r
pr es
bet ten
ĠDiam ond
ĠEin wohner
glich er
Ġgu ided
Ġkom ment
ĠRos a
ettbewer b
S ep
Ġer kennt
vor lagen
ĠIn se
ail le
Ġident ification
Ġacknow led
at on
Pro v
Ġdev oted
ĠK letter
ĠO fen
ĠÃ¼ber legen
ĠReg ierungs
Ġbatter ies
ĠAnton io
ĠM u
ĠJ oy
ĠO w
Ġer fasst
ran sport
ake te
ĠCont ract
fil led
ĠGroÃŁ britannien
ĠH ing
ĠGer ichte
ĠInternets eiten
R ock
Ġphys ician
ĠMÃ¼n chner
Ġgl uten
Ġhope fully
ĠPolit iker
Ġerot ische
Ġbe zahlt
! ).
A pr
ĠS R
ĠMehr heit
G S
a o
s w
ĠSch icks
ĠCharl otte
Ġd ough
ĠF icken
ĠK Ã¤lte
ĠMon ster
Ġdre hen
Ġdefinit iv
ĠSchn itts
Ġsett lement
ĠPartn erschaft
Ġcons ervation
Ġshel ter
Ġconcentr ation
ĠStor age
ag u
Ġsie he
ĠHer itage
ĠArbeit sk
ĠMich el
besch reibung
ĠBo ys
ĠGl anz
Ġident ifying
E ng
G erman
ĠMo ore
ĠMor gan
ol ven
ĠCh rome
r ise
es c
Ġcolle ges
Ġcompet itors
Ġdecor ated
Ġrout es
Ġt ort
Ġunterschied licher
ĠHeidel berg
or ph
ĠWe ine
ĠF ritz
uro pa
Ġpen et
ĠChair man
inder ten
ĠRechts anw
Techn ologie
Ġe bay
ĠA BC
ĠB os
ĠB estseller
Ġver Ã¶ffentlichen
Ġvor ab
sh ine
Ġgew alt
Ġehr lich
Ġa temberaub
ĠIn fl
ĠPot ential
Ġnavig ate
ĠAus sehen
kÃ¼ che
ĠRÃ¤ umen
ĠO klahoma
Ġall oc
ĠÐ º
ĠSa udi
ĠergÃ¤n zen
n Ã¼tz
ĠS CH
ĠC T
ĠBe zeichnung
Ġimm ig
ir ge
ĠO ste
Ġliebe voll
Ñ Ĩ
ĠVert riebs
ĠTom aten
ĠAL L
kal ender
Ġan get
Ġworld s
W ind
is ely
Ġl amin
Ã¶ ger
enn bar
ĠCent ury
ĠMain z
Ġgepl anten
T er
ip her
Ġag enda
Ġje ans
Ġtyp ischen
ĠP red
Ġas ian
auf bau
ĠGra de
iele feld
Ġtr inken
Ġhit ting
f ood
ach im
ĠN Ã¤hr
ĠAs k
ĠGener ationen
Ġaffe cts
Ġdete ction
ĠVerpack ung
ĠS ond
Ġl ately
un ct
ĠF ocus
ad ium
ĠTre ppen
I B
ĠS ave
ĠP el
sh ow
Ġann oy
ĠGeb Ã¼hren
wes tern
Ġpor ch
Ġen abling
Ġindic ates
ĠHon ig
Ġb icy
imm y
Ġret ired
ĠSc ient
ĠEd ward
akter ien
rep ublik
Q ual
ĠMe hl
ĠS ou
Ġh ass
Ġgar lic
ĠTer ms
Ġgrie ch
ĠK ne
Ġtra ils
Ġsl ight
ĠPark s
Ġdur ften
Ġnorm ale
c ery
Sch lag
ĠgroÃŁ em
ĠRicht linien
fÃ¤ llig
ĠE ffizienz
ĠSter nen
Ġoccasion ally
Ġrust ic
o il
p unkten
Ġan zub
geb lich
Ġlie ÃŁen
Ġlie bt
ĠBr ig
ĠBo gen
Ġzwe imal
ĠCH F
a al
Ġber u
Ġretail ers
B rand
Ġint im
ĠNatur schutz
Ġm aj
ĠC ars
ĠPl ans
ĠG ard
ĠFre m
Ġvers pricht
Ġgesch ickt
Ġsw im
ed es
ĠKon sequ
p raxis
ĠD ampf
ĠR ace
ok oll
rit zen
ĠOut fit
ĠSpezial isten
ĠKant on
Ġrencont re
Ġh ills
ĠAus blick
ĠhÃ¤uf iger
ĠF em
id d
her apie
ĠSp recher
Ġtra f
ĠAl i
Ġrec all
Ġbin ary
Ġgra des
Ġparticip ated
Ġreserv ed
Ġprov ince
Ġwirtschaft lichen
ĠTok yo
ĠZ one
ĠSch alt
Ġab ends
Ġreal istic
ĠMon te
p orn
ut ive
ĠE ich
iter rane
ĠberÃ¼hm ten
htt ps
ĠN J
Ġsp Ã¼ren
Ġinstall ieren
ĠBrÃ¼ cke
Ġautom ated
reit ung
ĠHon or
ry lic
ĠFe ature
Ġcare ers
ĠFÃ¼ ll
Ġfe iert
ĠKle inen
Ġrein igen
Ġphr ase
Ġp raxis
ĠD ragon
ĠV A
ap or
ĠAuf kleber
Ġpla cing
Ġconf used
Ġphys ically
ĠPort land
Ġbet rieb
ott a
ĠB ibli
Ġam pl
ry ing
Ġstr iking
ĠEmp loy
Ġtrou bles
T ime
Ġk ochen
akt ions
Ġfew er
ĠGer Ã¼
rif fe
All es
Ġprint able
ipp i
Ġverb esser
Ġsand wich
ĠIm press
or ious
ĠS ud
ĠW onder
Ġha irst
Ġger inger
Ġhosp itals
Ġw ise
Ġbra ce
Ġexperim ental
Ġkein em
ĠShe l
Ġham burg
ĠZ ertifik
Ġprodu ctive
Ġbed ienen
gem acht
oh nt
Ġt ong
Ġsch ar
Ġ7 4
ĠMen gen
S al
ag an
ĠEin zig
erstell er
Ġkom pl
ĠNachhalt igkeit
ĠW Ã¶rter
ĠC ulture
heiz ung
Ġtack le
ĠHawai i
G ruppe
Ã¤ be
ĠH ang
Ġorder ing
ĠAdv ents
Ġhyd ro
O ther
Ġspiel er
ĠHam mer
Ġb a
ĠPa are
Ġsubs cription
ãĢ Ĥ
st ufen
ĠerlÃ¤uter t
F ot
Ã¶ ck
ĠM erc
C le
ĠA ctive
ĠG ot
ĠSt ift
ick ets
mit ten
ĠConsult ing
Ġlo ver
Ġrad i
Ġsal ad
ĠsorgfÃ¤lt ig
l Ã¤ndern
b Ã¼r
ĠK ammer
ĠJ ens
vent h
Ġintern ationally
Ġange legt
ĠKomp lett
ĠgemÃ¼t lichen
Ġdeaktiv iert
Ġa wa
Ġd ont
ĠDes cription
He alth
S upp
Ġrec ognis
B ra
Ġe chter
Ġbas ics
Ġeth nic
ĠPhilipp ines
W ohn
Ġb oun
Ġschrift lich
Mus ik
Ġdecre ase
ĠÃ¶sterreich ischen
ĠGesch irr
Ġwhere as
Ġknowledge able
Ġmorgen s
Ġenem y
ĠT an
ĠNe ust
ĠSex kontakte
ĠJac ob
ĠRÃ¤um lichkeiten
C ard
V ER
b ahnen
ĠS uchen
Ġp ine
Ġoffer ings
Ġdirect ors
hel fen
Ġmotiv ation
ĠFlo or
ĠSto ffe
sch iff
ĠHaup ts
Ġp oten
ĠA uÃŁ
Ġis lands
ĠEx istenz
Ġdel icate
ĠlÃ¤ng ere
ĠMod ul
A uÃŁerdem
ĠS oul
ts el
ĠErinner ungen
ou ds
ann ers
erv ing
Ġcl ips
ĠFÃ¤h igkeit
ĠEreign isse
mans hip
H am
Ġein ver
Ġsch em
our met
Ġvo ted
Ġ iphone
ĠT alent
Ġbe arbeitet
um ph
Ġpro sec
ĠSch olar
och em
Ġfe hler
Ġg erman
ck len
L aut
Ġf ancy
ĠH amilton
ĠR ies
Ġauf wend
ort ion
igen en
ack er
Ġen or
me er
Ġgesetz liche
r ine
ing ang
Ġver arbeiten
Ġpres erve
scheid et
Ġinn ere
ĠRepr esent
Ġre chte
Ġwid th
Ġol ive
A c
us chen
Ġsch einen
Ġbet reiben
ĠGegen wart
Ġoffiz ielle
Ġt isch
Ġw ing
Ġver kauf
ĠGeschÃ¤ fte
ĠErkrank ung
Ġan geschlossen
ĠJ og
ĠFant asy
M B
i Ã¶s
Ã¤ nen
ad ows
Ġbit ter
Ġfest stellen
ĠMas ters
th on
we ilen
sh of
Ġprom o
H K
e inder
Ġsch lieÃŁt
ĠM omente
Ġbr ass
ĠPar liament
b age
ĠC ON
ĠBuch st
s sen
Ġ à¤
ĠSpiel zeug
Ġorgan ize
Ġdav or
Ġdemand ing
Ġs eller
ĠUm stÃ¤nden
amer ika
ĠBege gnung
ĠBetroffen en
V A
g ig
s ized
Ġtr icks
Ġtable ts
Ġencourag ing
ĠH ass
ĠK amin
Ġchar ts
Ġgl am
K at
ĠW id
Ġse g
Ġfun eral
Ġprest igious
I nt
Ġun limited
M al
sch icht
Ġpr iced
ric ts
Ġliter ary
Ġempf angen
Ġc ialis
ĠCh amber
ĠGr unde
Ã¤mp fung
ĠR oth
Ġdress ed
Ġprec ision
y alty
Ġf ixtures
la v
ĠAn bau
Ġdr in
tens ion
ĠPar am
ĠBest immungen
ĠAutor in
ĠProm otion
Ġerziel t
H T
g ert
Ã £
ĠB attle
ess in
ĠSch ild
Ġdeal ers
ĠText il
Ġgradu ation
ĠWohl be
m ax
r one
à ¹
Ġh iking
ĠBer Ã¼cks
ĠAll iance
Ġpsych ological
ir ls
Ġein erseits
ĠK offer
Ġqu ar
Ġra ces
Ġinvol vement
Ðµ ÑĢ
2 50
K unden
p g
r iss
ĠC OM
ze ch
ĠHigh way
Ġand roid
atch ed
agra ph
Ġsatisf y
jack e
Ġd ub
ĠU k
ĠKÃ¶l ner
Ġterr ible
Ġcamp ing
ĠKomp etenzen
ĠNet flix
be wegung
Ġprodu zieren
an ie
ĠA U
rop ract
g ood
Ġbe herr
ĠLe ave
A bst
ĠA le
iv el
ĠÃ¼ber t
ĠKind heit
Ġport rait
b em
ch air
be hÃ¶rde
igh ters
Ġche er
Ġmotor cycle
Ġein heit
ĠP ow
Ġen l
ĠKonfl ik
L in
n utzung
od ox
Ġco al
ser ie
Ġref uge
ĠRein igungs
ĠE aster
Ġk ne
ens ions
Ġsur g
Ġbesch reiben
Ġaud iences
spl atz
Ġep ic
Ġarrang ement
ĠD S
ĠV IP
pl ing
ĠEin er
cy cling
stre ifen
Ġearn ings
Ġdialog ue
Ġhand les
ĠH allen
Ġmeas uring
fÃ¤h ige
Ġrob ot
Ġsold iers
ĠT ower
Ġal ert
op Ã¤d
ne ath
Ġche aper
Ġinteract ions
Ġspons ored
ĠausfÃ¼hr lich
Ġt ension
ĠLand haus
Ġem bro
Ġfert igen
gesell schaften
D ay
å ħ
Ġder ived
Ġpre view
Ġitalien ischen
Ġpfle gen
C al
zie her
Ġinner en
on ly
Ã¼ ge
ĠL iver
Ġwor ried
br ig
ĠKle ink
wh ite
Ġprom ises
ĠTre ffer
b ike
Ã¤t tern
to os
ĠVerk Ã¤ufer
Ġh Ã¤ngen
Ġoffens ichtlich
re ckt
ant ik
Ġnews letter
ĠAngel a
om i
Ġqu ad
Ġ9 7
Ġem issions
Ġcompan ion
ĠKat alog
ĠN Ã¤h
ĠEr halt
ĠAl abama
Ġstet ig
iv ities
out ube
geb Ã¼hr
ĠgelÃ¶ scht
Ġk athol
ĠComp lete
ĠTran sp
ĠMex ican
g rÃ¼n
ĠN av
ĠN ash
Ġadd iction
Ġalb ums
Ġgen etic
Ġ7 3
ch tet
Ġf oster
ist ing
Pl us
Ġw ien
Ã¤r chen
ĠBer ge
Ġanswer ed
ĠWett kampf
r ings
r idge
ĠC ong
ĠR uhr
Ġsc al
IS T
Le ider
Ġdre ht
ĠlÃ¶ schen
M art
Ġth irty
ĠFÃ¼ ÃŁe
att y
Ġ10 1
ĠL av
clud e
tes y
ĠkÃ¼ hl
Tro tz
Ġe h
Ġl iver
ĠInsel n
ĠNeub au
t ube
Ġprogress ive
ĠL ess
Ġdon ation
Ġadvert is
ĠschlÃ¤ gt
w Ã¤sche
ĠM uss
Ġspe aks
Ġexpl ores
ĠAfr ika
it as
Ġw ines
Ġcon ce
ĠK osmetik
ste hen
Ġelse where
Ġgekenn zeichnet
r ison
och t
Ð½ Ð¸
War um
u pt
Ġan schlieÃŁ
Ġany time
recht lichen
Ġfinanz ielle
ĠSch aum
Ġent ries
mod elle
famil ie
ĠJenn ifer
ĠNether lands
ĠS ample
ĠUn c
Ġport al
ĠD V
ĠSt imm
Ġentsp annen
ĠVeranst alter
gesetz es
ĠChem ie
ĠTenn essee
auf nahmen
Ġsol ange
ĠGes ichts
Z wei
d atum
ĠZ ell
aff ung
ĠPreis vergleich
ĠPort folio
ãģ ®
ĠDistr ib
ĠDein er
Ġausges prochen
Ġle ase
Ġsh ips
Ġprof its
lam pe
ant rag
ĠThanks giving
Ġwissenschaft liche
C lass
Ã¶r g
Ġfinish es
ch ed
Ġsch aut
ĠMann heim
ĠSal on
N ET
ĠAb d
Ġgeb unden
us sten
Ġse ch
Ã¼nd en
ĠHier zu
organ is
ĠMag n
ĠK issen
Ġcar ries
ĠHar ris
ĠGest alten
ĠMatt hew
Ġadopt ion
U s
gen ce
Ġverl iert
utt le
Ġwunder bare
ĠEr kenntnisse
Ġum so
Ġimmer hin
ĠEuro pÃ¤ische
Ġhard wood
m utter
Ġstud ium
ha fter
Ġopp osed
Ġpresent ing
ĠS QL
Ġpurch ases
ant on
Ġs ights
sp olitik
Ġbu ck
hr itis
ĠVor schriften
Ġco zy
ĠGew inne
Ġtreat ing
ĠF ish
ĠIn side
Ġatt orneys
Ġdecl ine
eit ig
ĠMus chi
Ġdraw ings
ĠCam bridge
g ame
Ġg Ã¼lt
id i
per rt
att ing
ĠWi Fi
ĠMathemat ik
ĠRegistr ierung
ĠR enten
ott es
Ġhei ÃŁe
ell i
av an
Ġber ichtete
Ġsal ary
z ur
ĠZ ig
red ited
ĠDis ziplin
ĠDen ver
ĠImm un
Ġille g
O rig
ipp e
ĠAut h
gesch ritten
ĠEl ite
Ġumfass end
= "
em bers
ĠWe ber
bet reiber
Ġhe utzutage
Ġab gel
ĠBe ar
ĠVer mittlung
Ġ8 2
Ġel f
mel de
Ġveter an
Ġinter vention
con ne
Ġ> >
gÃ¤n gen
ĠK ay
ett a
ĠBÃ¤ ume
Ġentreprene urs
ĠSU V
le ans
ĠP ots
Ġk op
ĠC in
Ġj Ã¼d
ĠAir lines
stud ium
Ġdecla red
w itz
Ġz auber
ĠChrist opher
wor te
Ġau ction
ĠErschein ungs
ĠS lo
Ġbe zieht
Ġst omach
ist ical
ein er
ungs los
EC T
ĠEr folge
Ġopt isch
ĠAlle in
Ġeuro pÃ¤ische
n amen
re cken
Ġsc rap
Ġw Ã¶ch
Ġcomp uting
ĠNe uk
med iate
ĠW E
ve led
med ia
ĠSchn Ã¼r
an as
Ġcolle cting
opp ers
Ġbesch Ã¤d
ĠFer r
Ġl ips
Ġbe ans
ĠE mb
ĠDe an
Ġdis miss
ira ble
ieÃŁ t
ĠF at
ap ing
Ġd ose
ĠC V
ĠAn ruf
ĠHe x
Ġmedizin ische
ĠD B
ra ys
ĠVor stands
Ġber Ã¼cks
inn y
ĠMe g
H aben
P eter
bur t
ĠMore over
Ġqual ities
ĠAl ong
Ġ7 1
Ġnam ens
ĠFert ig
ĠSum mit
? ?
Â ĵ
ĠW at
hr te
Ġge fÃ¼hl
Ġant ique
ĠB ibliothek
ĠInform atik
ĠA sp
ĠH ins
ass ung
ew anne
ĠSe ver
ĠHe b
Ġbet ont
c led
Ġver boten
vel and
ĠFil ms
ĠP rag
ĠL ane
ress ed
Ġdur ability
ĠGovern or
Ġh obby
ĠDem onst
Ġtats Ã¤ch
ĠTÃ¤t igkeiten
Ġabst ract
gr Ã¶ÃŁen
Ġac res
ĠAd ressen
ĠDel iver
ĠBesuch ern
Ġscen ario
ĠBegeister ung
ĠEmp ire
Ġsustain ability
l iter
Ġin hib
ĠD rop
ĠV ul
off s
ĠFrÃ¼ chte
Ġexplan ation
Ġm ud
Ġtra fen
ĠTra uer
Ġview ers
ĠClub s
Ġestablish ment
us er
all tag
ord on
wor fen
ĠDiagn ose
Ġp ushed
fl Ã¼ss
Ġele g
Ã¤nger ung
ĠSa al
Ġoptim ieren
Ġfla vors
ĠErgÃ¤nz ung
P ower
ĠB eth
if i
Ġrespons ive
Ġneigh bour
Ġcollabor ative
hard t
Ġestim ates
ĠCa fe
Ġerg onom
ĠOsc ar
as ive
per to
ĠR av
Ġpr on
Ġche f
Ab out
Ġloss es
Ġanim ation
ĠVerletz ungen
ĠU nt
Ġbek omm
Ġdiskut ieren
Ġrestr ictions
r iger
ĠI BM
qu ellen
Wh o
Ġmedizin ischen
a ine
ĠD O
Ġsh ipped
sp ace
Ġass ault
ĠVorsitz ende
spf licht
ĠBerÃ¼cks ichtigung
m other
n isses
richt ungs
Ġinform ative
Ġs ach
ist ol
Ġ36 5
wal ts
C or
Ã¶ hnt
Ġgu ilty
ĠMaterial s
ĠKer amik
Ġterrit ory
ofil me
ĠH ut
art ment
geb ieten
Ġback ed
ĠKon zepte
Ġpsych ology
Ġf auc
ĠC onn
ĠDe te
k ons
Ġl ad
Ġst ones
Ġtr ials
ĠmÃ¼s se
Wh ere
ĠFran zÃ¶sisch
ĠBen jamin
ĠEv al
ĠTranspar enz
ie bel
Ġ( +
ĠZ elt
asc ular
Ġcred its
ĠGriechen land
ĠW iesen
am as
ĠZ im
out heast
ds m
ĠPhot os
ĠO ra
ĠBron ze
Ġarbeit ete
Ġsett led
ĠVer wand
Ġspe kt
ĠFor st
Ġ7 9
Ġlog in
B and
er ted
ĠC ass
ahn sinn
Ġs telle
ne uer
Ġget rennt
Ġeinge fÃ¼hrt
ĠSim ple
ĠZwe ifel
Ã¤ ppchen
Ġback en
ou stic
ĠF M
sel ben
Ġ198 2
Ġcontinu ously
Ġsou p
emeter y
Ġd ys
ĠR asen
ĠBer nd
y pen
th al
Ġform ats
gef unden
produ kt
ĠP le
Ġunder lying
Ġer zeugen
Ġzwe if
th aus
Ġcar rier
Ġmar ijuana
' '
ĠL uk
Ġun cover
Ġj aw
Des pite
Ġimm igration
o ge
Ġm arch
ar ium
Ġunter scheidet
Ġdedic ation
Ġutil ized
Ġimplement ing
Ġa rab
ĠSh irt
ĠCre me
ĠCop yright
o hne
er d
ĠGe pÃ¤ck
ĠFrank furter
ĠKontakt daten
ĠÃ¼berprÃ¼ ft
Ġangem essen
K S
Ġp y
Ġn est
am el
ĠHe iligen
ount ain
Ġstra w
Ġseek s
Ġchem istry
Ġagric ultural
Ġsc oring
ĠÃ¤hn liche
Ġdiam eter
ĠR iesen
Ġr Ã¤um
Ġver Ã¤nder
Ġadv ised
ĠIke a
ĠR V
me ga
Ġste cken
Ġtr at
of ern
ĠOper ations
ĠEinsch rÃ¤nk
N Y
b ane
et a
âĢ Ĭ
Ġamb ul
kret Ã¤r
Ġwra pped
ĠD ingen
Ġag ing
Ġkonkre ten
Ġhes itate
e v
ie v
ĠM Ã¶n
ov o
ĠBul gar
Ġnavig ation
Ġpro priet
ĠfÃ¼ hl
psy ch
it ations
ĠF DP
ĠE g
ĠAn erkennung
Ġausge fÃ¼hrt
ĠT ed
hr er
Ġent s
ĠGr ant
ĠVerbind ungen
Ġhott est
G ar
ĠD ual
ĠK urt
ber ries
fÃ¤h igen
ĠA thlet
ĠF ro
Ġhe ated
Ġger ingen
ĠzurÃ¼ck ge
Ġporn os
ĠCons ider
ĠH E
Ġne at
ĠBe inen
Ġhome owners
Ġdon ations
Ġleg te
ĠReview s
å ı
at ar
ĠM auer
Ġr utsch
ĠSt urm
ĠBot schaft
Ġaccomp any
ĠSchad ens
g irl
ĠAus flug
Ġsec ured
P s
Ġg ently
her z
ĠUnter kÃ¼nfte
Ġbene ath
Ġgran ite
Ġfurn ish
ul ierung
Ġhom emade
ĠBrook lyn
Ġt ent
ĠAd ult
ĠPe ace
ĠÃľb ungs
vertre ter
C R
j ing
Ġw ax
ĠF ax
ĠK ond
Ġtreat s
ĠwÃ¼r d
ĠElekt ronik
ĠFarb ton
Ġign or
Ġkonzentr ieren
Ġk raft
Ġgr ill
ĠJer usalem
ĠB ald
ĠC E
Ġun ve
pect ives
Ġanaly tics
b ud
ĠMÃ¤r chen
ĠgÃ¼nst iger
verstÃ¤nd nis
Ġbound aries
ĠA partments
ĠM ord
ĠGrund schule
ĠSpe ise
ĠSw itch
Ġwirtschaft liche
E m
f ather
at om
ĠB ars
ĠM ob
ĠR AM
ang hai
Ġoff line
ĠChar lie
Ġdiscuss ing
Ġelektron ischen
Ġge werb
Ar ch
Ġexec ution
w etter
Ġs ung
ĠC ater
ach ers
wh o
back en
ĠTai wan
ĠP HP
Ġag greg
f onds
ar re
ĠB ug
Ġbes ter
ĠGra z
li est
Ġseason al
Ġexter nen
verkehr s
Ġ ic
Ġwork force
gesch windigkeit
Ġcoach es
ĠLif estyle
200 7
ĠFlÃ¼ ge
Ġbran ches
ĠAbm agerung
Ġabsen ce
Ġa ug
Ġp unch
ĠO H
Ġge fÃ¼llt
Auf grund
ĠKonfl ikt
ver ages
zw ungen
ĠKla vier
ĠQuad rat
Ġstake holders
Ġreal isieren
vere ins
Ġnur se
ĠSport ler
re gal
ar ische
Ġsch e
ĠMe yer
arm a
Ġun for
Ġbeg un
Ġpassen ger
geordnet en
ĠAgre ement
R est
z o
ĠL ob
pe ople
be kleidung
form ing
fahr zeuge
ĠCar ibbean
ĠHin blick
Ġjemand en
ĠSch lÃ¤
ien na
ĠPar ad
ĠDi agram
ĠSn ap
) -
S ign
il fen
com ed
ĠPlan et
Ġfoot age
Ġabge geben
r asse
ĠÃľber nahme
Ġnet te
Ġfolg te
W atch
Ġt une
ĠS cre
ag ine
Ġhard ly
Ġto xic
ĠL etz
Ġso ap
men ge
Ġbet ting
ĠVorsitz ender
M icro
ĠT ieren
Ġre loc
Ġfor dern
ĠÃ ł
new s
Ġschme ckt
m akers
ĠS weet
Ġland ing
B ad
Ġbi ological
Ġrank ing
Ġdiscip line
Ġenorm ous
Ġaest hetic
zust and
M ann
h ill
r im
Ġp as
Ġc la
Ġh ence
Ã¼ stet
ĠW inkel
Ġre cept
ot ype
Ġunter liegen
ĠCon vention
Don ald
Produ kte
S icherheit
Ġst ap
ran ke
ĠTem ple
Ġdro ps
funktion en
ĠiT unes
Ġto dd
spe ed
Ġdig est
ord nen
Ġro d
Ġaltern atives
Ġsol ving
Ġwind s
Ġmanufact ure
Ġdef end
Ġvulner able
ĠB ands
ra ining
ĠVer w
erv es
ĠBer gen
Ġbeg rÃ¼nd
Ġphys ics
Ġdump ster
ĠM ul
Ġprov isions
ĠBel iebt
Ġdress ing
ĠFert igung
in ely
ĠM aking
op ing
Ġaddition ally
Sh ow
ĠEntste hung
P E
ak u
ĠGe halt
ĠS onst
ĠLe gend
ĠS yl
ĠK i
ĠJahr gang
ĠDu isburg
IT Y
ĠImp ort
Ġsole ly
as m
ip linary
Ġredu ces
isc al
L ove
iden cy
ĠWies baden
Ġd ial
st airs
Ġ8 9
Ger ne
k au
Ġd icke
Ġo xygen
ĠVor jahr
ĠChrist ians
Ġeins etz
sta aten
an spruch
Ġan f
Ġpush ing
ĠÃľberrasch ung
re ht
ĠPh ill
grÃ¼nd en
ĠWeit eren
ĠM isch
ĠH av
Ġe G
iz able
be wertungen
Ġapp et
ĠMal er
Ġsus pend
zent ren
ĠFollow ing
Ġmob ility
S l
Ġk iss
ud ia
ĠHand werks
Ġkomp letten
ĠWider stand
k ok
Ġse crets
Ġspecial izes
Ġfa ult
Ġbott les
Ġcontrib uted
ĠB ureau
fahr ts
Ġnational en
Ġsun ny
ĠDeck el
ag ern
Ġab ger
Ġsh ine
ĠRe aktion
ĠLe ib
uer st
Ġgl Ã¤nz
ĠBeteil igung
D ank
Ġunder neath
Ġbo asts
18 0
Ġcy ber
ĠStrateg ien
n ab
ĠT ogether
ĠGew erk
Ġneighb ors
w ochen
ĠT rom
ĠG ary
Ġcustom ize
Ġauthor ized
Ġklein eren
Ġbare ly
kre uz
l ation
den k
pl Ã¤tzen
Ġviel mehr
Ġkurz fristig
ĠWeltkrie g
Ġletzt lich
ĠF akten
ound ing
Ġarbeit s
c alled
ĠW W
ĠK ohlen
ren zen
Ġcap tain
ĠLiefer anten
ĠScott ish
Ġcush ion
al ous
r iel
Ġg all
ĠD rogen
ĠK oll
Ġarr est
Ġadmin ister
ĠEnerg ien
Ġsonst ige
c ost
or ca
Ġf rench
ĠAus fÃ¼hrungen
ĠBuch ung
usch el
Ġblog ging
ĠBeteil igten
P I
ĠSch atz
iz a
ĠCom ic
ĠJust in
Ġnic ely
ĠR O
ĠWork s
E gal
p il
Ġk onst
igen schaften
Ġcheap est
Ġmagn ificent
sch ieden
ĠSe en
Ġsqu ad
Ġr ush
Ġgra in
Ġincorpor ated
S an
Ġan onym
ric ane
Ġ197 9
ĠUt ah
it ution
Ġaus gesch
schn itts
steuer ung
aceut ical
O ct
ĠG ib
ĠH ad
Ġgeb ucht
Ġcomp ly
Ġpool s
spe cts
ĠKrÃ¤ fte
Ġdent ist
ĠPict ures
b rech
ĠD iffer
ĠN ep
ĠSpiel tag
Ġindivid ually
Ġaccept ance
Mar kt
Ġembro ider
K ur
i ah
Ù Ĩ
ĠL ip
ĠSh ipping
ĠDeutsch er
Ġcand y
Ġkompet ent
ern et
ĠBe fest
Ġhand led
ĠWohn raum
* *
re iter
Ġval ley
Ġfle et
Ġdefe at
Ġauf gestellt
ĠIn v
Ġver ring
Ġex tern
ok ia
Ġacc idents
ĠSw itzerland
Ġcer amic
Ġ8 7
Ġdif f
Ġconsider able
Ġmag azines
back s
ungsver fahren
ĠKnob lauch
g ibt
ĠDe fense
ĠAus gaben
Ġcons olid
Ġbelie fs
Ġ: -)
B uch
h attan
ĠSie d
ĠNot fall
y t
Ġin cl
ĠÃľ bung
Ġze igten
Ġt its
lie ger
Ã¶ch er
Ġinstru ctor
ĠAuftrag geber
h ire
ĠAl ice
Ġod ds
Ġleit et
ĠF ellow
atur en
ĠBet rag
ĠKr atz
ĠT schech
ĠPro be
row s
Ġcal ories
ĠHÃ¶he punkt
Ġl ace
Ġcar p
schn itte
k art
Ġk lÃ¤
Ġdesign ated
Ġinv itation
g reen
ĠSp ass
Ġvo ters
ĠAuss agen
ĠStÃ¤r ken
ĠDrit ter
as ion
ĠSt ufe
Ġcom men
Ġges unden
ĠCan on
Ġpod cast
Ġle ak
rÃ¤ glich
ĠPl Ã¤ne
ĠBr ight
Ġwatch es
ĠConne ct
ĠCommunic ation
Ġrecruit ment
R T
ĠSch all
ĠNachbar n
brÃ¼ cke
Ġb ereich
Ġdem o
ĠB ist
ĠT s
Ã¤ ub
ul i
ĠMan chmal
ĠBr ut
ument en
Ġerfolg te
Ġh ired
ol ta
Ã¶ bel
Ġde lete
sp reis
ĠBedÃ¼rf nissen
cklen burg
g ow
ĠT ips
ĠD ak
ĠR unden
Ġverl angt
ĠTrans formation
Ġsurg ical
ir che
Ġam end
ĠAl an
Deutsch land
C all
F O
k aufen
et ry
ĠL uz
ind ex
ant es
ather ine
kont rolle
Ġaustral ia
Ġb ind
ĠO cc
Ġcomp assion
ĠVor haben
Ġdraw ers
ĠAuft akt
ĠFurther more
g ly
Ġp Ã¤dagog
Ġc ust
Ã¶ ll
Ġman ifest
ĠAr c
ĠG ram
Ġer fr
ĠZ oo
Ġbo ats
ĠRob in
Ġentscheid end
d ose
ge fÃ¼gt
ang aben
Ġsp oken
ĠMar co
. ;
tel t
Ġteach es
Ġsett le
ĠPan el
at oes
und et
ĠBer ichte
Ġ8 6
Ġload ing
ĠregelmÃ¤ÃŁ ige
Ġkonzip iert
Ġc ub
Ġvertra ut
deutsch en
te enth
Ġer mitteln
bed ien
Ġfest gelegt
stra hlung
Ġqual ify
ed ish
akt ive
p ensive
ĠReg isseur
Ġgel assen
Ġstra hl
Ġp c
Ġconf idential
ĠBlog s
Ġfeed ing
Ġdisapp ointed
Ġtal ents
ar in
Ġn ett
ĠF ace
aut ion
ĠFol genden
bas ierte
ĠDub lin
B ig
u itive
Î ±
ĠD ry
Ġk reativ
ul ent
Ġer richtet
ym bol
ĠWerk zeuge
K A
r ary
Ġnation wide
ĠN ear
Ġsh o
aut hor
Ġrece ives
ĠS org
ĠG az
ik at
oc o
Ġstud ierte
AS T
ĠRed u
b in
Ġsk irt
ĠÐ ´
M aterial
U sing
ra its
ĠCon temporary
Ġsens ation
ĠPrim ary
M E
sche ibe
bra cht
son sten
Bes onders
Ġgepfle gt
Ġward robe
c ur
ib len
ĠKind ert
ĠSw eden
Ġimpact s
Ġinn oc
ĠM agen
Ġre ven
se ud
be z
ĠÃĦ hn
Ġdefin iert
Ġpo em
ater al
F R
ĠB orn
Ġen rich
Ġextra ct
Ġtour ists
ĠFel ix
ĠIndep endent
Ġst ur
Ġsome body
Ġstar tete
Ġers etzen
ĠDruck er
ĠPen is
an schluss
ĠAn imal
ĠDies en
Ġbekomm st
ĠAb schnitt
erm ine
Ġprec isely
ed el
Ġfund ed
Ġagric ulture
Ã¤ ck
ĠSp in
ĠInd ien
Ġfr Ã¶h
Ġreich lich
ĠS orten
Ðµ ÑĤ
Ġharm ful
Ġ Å
ig end
Ġweit gehend
ĠPh Ã¤n
ĠKl icken
ĠSan ierung
ĠCle veland
Ġsister s
ĠVer st
Ġnach voll
spl ant
Ġobs erve
Ġsan ft
ĠHins icht
ĠL uck
Ã¤mp fe
Ġ Ã¤r
Ġade quate
Ġm esh
Ġsch arf
Ġpain ful
ĠT utors
Ġbit coin
fot os
Ġc rop
Ġinfl amm
ĠKent ucky
k issen
ĠW att
ot ter
igen ous
Ġsp iegel
bu ild
Follow ing
r ufe
ĠSe gel
Ġcomplex ity
Bel ow
ste ine
ĠAl fred
Ġro ller
land o
E nerg
S earch
Ġw ahre
Ġf uhr
Ġeas iest
man ager
Ġ15 00
schl agen
ĠCor p
Ġprefer ences
Ġsem ester
P T
Ġm ithilfe
ĠP flanze
Ġall tÃ¤
Ã¼hr ung
Ġgef ickt
Ġfra gt
Ġgradu ates
Ġec os
Ġspekt akul
f und
Ġe ars
ste il
Ġregion ale
hist or
h aven
ur u
ĠRe chen
Ġkn ife
ĠLÃ¶s ungs
Ġrefle ction
ĠElement ary
K unst
ic ular
ess els
Ġdo zens
Ġper malink
Ġangeboten en
ĠLe ather
ĠhÃ¤ufig sten
Ġinfluen ced
ĠJon athan
Bu y
ĠFly er
Ġbun ten
Ġelect ro
Ġunverbind lich
Ġret ten
Ġaff airs
p on
Ġer m
Book s
ĠBras ilien
ĠRucks ack
Ġn it
Ã¼n chen
M aster
ĠM umbai
Ġl ined
Ġein drucks
ĠW Ã¤nde
ĠC elebr
ĠR ow
ĠKan al
ĠYear s
Gener al
Ġp aste
ash ing
ĠRat geber
ĠGenehm igung
g ender
Ġbe merk
Ġsport ing
ĠDein em
ĠBow l
ĠWohlbe finden
g Ã¤rten
ĠT eller
bar ten
Ġger Ã¤um
Ã¶ff el
ĠKr ise
ho fer
h off
lass ung
Ġweap on
Ġadv ances
Ġdep os
Ġwid ers
Ġmagnet ic
om me
ĠB ienen
op es
ĠArt ikeln
Ġkl aren
Ġclos ure
Ġinde p
Ġhon ored
P aul
l Ã¼ssel
Ġpe er
ĠTag ged
S ub
t rans
ling ton
Ġprogram mes
Ġorganis ator
ĠS cr
ig ers
ens ervice
ves ter
Ġcomb ining
ĠBeweg ungen
Ġworkshe et
unter lagen
ĠPop ular
lik ely
Ġ19 40
Ġgen annte
iss ippi
Ġra c
bra un
Ġ198 3
ĠSur f
Ġv oting
ĠK ochen
ĠO wn
Ġro l
Ġvar ieties
ĠForm el
Ġbeeinfl usst
b ru
Ġd il
ĠL KW
ĠV ibr
ĠAuf stieg
F ans
g igen
m aker
ĠY e
ĠFar bt
ĠPf anne
Ġn in
ĠW end
ver teid
ĠSt ay
gel Ã¤nde
ĠEx port
ĠTher m
ĠTro ck
ĠVersch lagwortet
ie ller
Ġne hme
Ġex pense
ĠFÃ¼hr ungs
Ġfol k
Ġbur den
Ġpromot ional
k abel
Ġst ays
ĠBedien ung
Ġw ool
an ischen
Ġl in
ad resse
ĠSt ark
ĠTra g
Ġinst ruct
Ġmod ular
Ġfollow ers
Ġfab rics
ĠFranc is
Ġeing eh
B ased
âĢ ī
ĠK ondition
ĠTra iler
ĠGra ce
Ġter race
ĠSpiel ern
Ġexpla ining
ĠPrÃ¤s ent
ĠW Ã¤l
Ġpre ced
Ġges orgt
ĠMus ical
ober t
zieh bar
ĠSub st
Ġreag iert
ĠJubil Ã¤um
ĠMax im
ĠRet urn
ĠiP od
ĠW ant
Ġtem ple
ĠMit ch
Ġber eiten
Ġbo il
bes itzer
stud ien
1 20
ĠH S
men gen
Ġopt ical
ĠBab ys
ĠCommer ce
ĠA hm
im ents
Ġauf weisen
gr ill
Ġautom ation
Ġverein bart
rupt cy
Ġbere chnet
Ġtex ts
Ġwesent lichen
R uss
ĠF akult
ier st
ag el
neh in
i ov
im ore
ĠN ort
ĠStud ierende
Ġdead line
Ġl ap
au ge
wechs lung
w atch
ĠH ood
ĠSo fern
Ġwel comed
Ġfinanz iellen
Ġheim ischen
D ruck
h all
ĠT rue
ĠPro test
ĠY ellow
Ġchar akter
ĠLu ke
freund lich
ilde te
ĠPrin cess
I ER
Ġsk etch
in tens
ĠS ure
ĠCl ient
Ġdepend ent
sch ritte
ian e
D ER
ĠF Ã¼nf
ĠWirk lichkeit
Ġverein baren
ĠVerm ieter
ĠWart ung
w achs
ç ļ
Ġm eter
ĠK ongress
sh irts
piel en
Ġcook ie
ĠNieder lage
Ġapprec iation
bring ung
ĠValent ine
v als
ĠH end
Ġzu stÃ¤ndigen
ĠSch ach
Ġwor auf
Ġpres idential
ĠRes pekt
Ġmotiv ated
aust ausch
Q U
z elt
Ġs ons
iv ia
Ġent ity
bet en
Ġb adezimmer
ut r
ĠUn abhÃ¤ng
ĠRen ov
A v
he alth
ĠProf is
Ġgute m
Ġsix th
Ġb arn
Ġ8 4
Ġmed itation
Ġappe aling
zen te
res ist
Ġander erseits
F ra
irm ingham
ĠBirth day
Ġd edu
on er
ĠP KW
ber gen
Ġmain stream
ĠC os
kt oren
ĠWe ing
Ġ9 2
Ġgleich ermaÃŁen
Ġmedic ations
ĠD SG
Ġex klusive
Ġt ang
as ant
iv ation
op en
her d
ha ar
Ġre ib
Ġtw itter
pe icher
Ġcle ans
Ġgee ignete
T urn
Ġm elt
ĠP aint
Ġsu ck
ĠBre it
Ġkreat iven
Ġbalcon y
Ġz it
Ġfor ums
Ġsch au
Ġinv al
Ste p
is an
Ġhar vest
Ġrespond ed
Ġmaxim ale
D el
D ienst
M at
Ġ ]
ĠNach folger
ĠPal ette
wÃ¼r fe
ĠAutom aten
ĠTrink wasser
ĠT Ã¤
Ġha ut
ĠAr thur
Ġprocess or
ĠRet ro
ĠCre ate
Ġsch olars
ĠFl u
Ã¤uf ig
Â» .
ĠL CD
ĠRe kord
lass es
ĠSpiel othek
reg ister
ĠBra unsch
ĠMeer es
Ġtat too
ĠKass el
ĠS omm
ĠH unter
lo e
Ġg alt
st rich
se ason
ĠSte uern
Ġprom ised
Ġerw achsen
Ã¤us chen
Ġscholar ship
Ġmic rowave
ĠBe cken
Ġchar ging
Ġangeb racht
weil ig
p fer
ar ms
qu ote
arbeit ungs
Ġbo oth
ĠBes ides
od ed
ost ik
Ġdo zen
az itÃ¤t
Ġk enne
loy d
ĠMa ine
Ġc ele
Ġsp Ã¼r
Ġfr idge
Ġline ar
Ã¼nkt lich
ĠWe hr
ĠLe uten
ĠSpr ung
< /
Ġex otic
Ġteil te
ĠAuseinanders etzung
Sch ule
Ã¤h le
ĠDis cover
Ġaud it
ĠMitglied schaft
ĠPrÃ¤sident en
ĠNerv en
, âĢ¦
V erk
ĠComp anies
ari at
perto ire
ĠL iquid
Ġmusic ian
Ġpick s
Ġries ige
Ġvit amin
Ġdestroy ed
unters uch
Ġcorpor ations
Ġd isch
Ġr anges
amp oo
Ġser ial
ĠHow ard
augh ters
ĠPrem iere
S pr
ĠO bs
ĠInter pret
Ph oto
r ischen
Ġg ad
ag ert
ĠWurz eln
ĠLiver pool
in f
at us
Ġbe ur
ĠRe ferenz
ink le
hand els
ĠBelast ung
S en
Ġvors ichtig
ĠEr holung
ĠAm y
ĠWith in
ĠOpt ions
Ġchair man
Ġid yll
ĠKonzer te
bearbeit ung
ar ischen
ifiz ieren
ias is
ĠHum or
Ġmerchand ise
Ġun fortunately
Ġam id
Ġgrow s
R ei
le hre
ĠOr leans
Ġkont akte
Ġcompla int
w enn
Ġst immen
Ġres pekt
ĠÃ¼berrasch end
ĠG n
Ġdes c
pa id
ograph ical
Ġausgest atte
ĠEinblick e
ge ist
Ġtw elve
spro zesse
M O
er b
ĠR eiter
ab a
ill es
Ġen ge
fe hler
Ġmoder ate
Ġzu geschnitten
Ġzu gelassen
Ġ9 4
Ġbed anken
ĠArom a
Ġinc ent
ĠHar vard
ĠVe get
Ġelement ary
ĠV oice
ĠAus kunft
ĠApp l
Ġattra ktiv
etz er
Ġ4 50
Ġmin er
Ġmon et
anc ers
ĠSol o
Ġaktiv iert
b ibliothek
ste dt
Ġout line
cl ip
Ġro cks
Sp an
gener ation
Ġbeant wortet
ĠCert ificate
ĠkrÃ¤ ftig
Ġcou rage
hol m
Ġa qu
Man agement
Ġhospital ity
ĠKf z
ĠK ling
arn ess
ĠGroÃŁ teil
ĠSupp ly
Ġpromot ions
ĠregelmÃ¤ÃŁ igen
p in
Ã¼ ter
ĠG ipfel
ĠAus rÃ¼stung
Ġtrain ieren
Ġjung er
Ġanzub ieten
ge ordnete
Ġterm inal
Ġh ug
ĠC PU
ac les
Ġunder ground
ĠBeg rÃ¼nd
200 6
Mod ell
Ã¤ ll
eth yl
Ġger ufen
ĠMot ive
Ġsens it
Ġsymp ath
Ġeinver standen
Ġums etzen
Ġb ree
Ġg alleries
ĠB auer
ĠW im
Ġcontain ers
pekt rum
Ġindep endence
on ies
ol ph
ĠC rew
ess a
00 1
ĠGes ang
Ġlock ed
Ġpros pective
Ġcoast al
ĠDefin ition
a ire
Ġw Ã¤r
ap ier
oc rats
ĠGel b
ĠberÃ¼cks ichtigen
u ated
ic ting
bes uch
ĠVermÃ¶gen s
Ġk al
ĠLa une
Ġpen is
Ġthr illed
ew ise
Cl ub
ĠbemÃ¼ ht
ĠProf ile
ĠTit an
Ġdynam ics
T ele
ĠM achen
ĠNe v
Ġerleich tert
an bul
Ġb its
hr ung
art z
Ġall zu
ĠVer stÃ¤r
ĠIm per
ĠBet a
Ġverw Ã¶hnen
Ġveget able
ĠOrient ierung
Ġt y
Ġv ag
ĠFr ische
Ġerreich te
Ġconver ted
Ġunn Ã¶t
Ġd icht
ĠE S
Ġpro spects
Ġhand made
Ġange fangen
ĠMo h
Ġd ot
Ġb oring
Ġk Ã¼nft
ĠDe cke
Ġ197 8
I Z
Ġ9 3
atter ed
ĠCle aning
Ġfro h
ĠIntell igence
Ġdun klen
Ġtremend ous
ĠS obald
sch Ã¤d
Ġ- >
ĠGu y
ĠAustral ien
M ass
ol t
ran ten
Ġlang jÃ¤hrigen
Ð¾ ÑĢ
Ġnotwend ige
Ġmaxim ize
Ġelektron ische
á »
ol ester
ĠN ice
tend lich
ĠEv a
Ġrelax ation
che f
Ne ue
Ġmechan isms
C re
T yp
Ġsh adow
ĠÃ¼b lich
p ted
ĠD al
ĠV eh
ĠJ ury
ĠIs ol
Ġmar ble
Ġgesellschaft lichen
Ġe uren
iv itÃ¤t
ign ed
Ġattra ktiven
Ġgeeign eten
Ġengl ischen
b la
Ġr ugs
Ġha use
Ġschle chter
ĠGeheim nis
P ay
im o
id ity
ĠLe ader
gr at
Ġintegr ate
sm ith
H inter
ĠN ich
Ġj ail
ah me
Ġbet roffene
ĠInteress enten
ĠC urrently
ud a
oc ur
12 3
Ġstraight forward
Ġinterpret ation
Ġd rÃ¼cken
ĠV PN
au ger
osh op
ĠO L
op ic
ted ly
Ġtr ash
Ġmod ules
ĠNÃ¤ gel
D id
Ġb aut
ĠGe halts
Ġprofession ally
ĠBre ms
ĠFlor ian
kr ise
ĠDipl om
t own
Ġad orable
ĠPosition en
Ġcoc onut
ĠRechn ungs
le uchten
ĠZ ie
ĠSe xt
Ġunder graduate
Ġclos est
Ġheut ige
Res earch
Ġnachfolg enden
c asts
Ġt ear
Ġ( $
od ont
Ġ198 1
ĠspÃ¤ter en
1 60
ĠS orge
ir chen
ĠDe pression
az y
Ġvari ations
Ġclim bing
Ġexklus iv
h ub
Ġbl essed
ĠMittel n
ĠSelbst verstÃ¤ndlich
r umente
s i
å ®
ĠB ischof
ĠR F
Ġdes ires
aus gabe
ĠHe ck
Ġste he
Ġsub mission
ĠPl ak
meric a
Ġintegr al
ĠDienst leister
ĠSym bole
ĠB V
Ġl ernt
Ġk ost
ĠH C
Ġsupp orters
ĠArt icle
ĠWar enk
child ren
Ġh unt
gÃ¤ ste
ell os
Ġsen iors
ĠWol ken
re ll
Ġb ite
ĠWar te
ĠZiel gruppe
Ġsport lichen
c in
r ian
ĠC ards
Ġex ams
mÃ¤ÃŁ ige
Ġ197 2
Ġ197 5
Ġgegen seitig
ĠSchm utz
Ġrepla cing
Ġcas inos
Ġf ired
ĠR ange
ĠRe iz
b end
im ar
geb urt
Ġnear est
Ð¾Ð »
ĠWay ne
ĠWag ner
Ġz immer
Ġk alten
ĠK lÃ¤
Ġbeste hend
ĠAss ess
Ġc ups
ste m
Ġhand ful
N G
ĠD ing
Ġsh orter
Ġdiffer ently
Ġdiscuss es
Ġemer ged
Ġine vit
ĠRog er
tat too
ul ates
ĠFunktion alitÃ¤t
ĠPhys i
Ġmyster ious
Ġan sprech
ri um
Ġbre ed
Ġbuild s
ĠZu kunfts
emb led
Ġconsist ing
ĠjÃ¼n ger
a ffe
st ars
Ġr ival
ĠStr ick
weis ungen
flÃ¼ gel
h Ã¤n
Ġmusikal ische
Ġoh nehin
ide e
be y
Ġgesch ehen
tre ffen
Hol stein
Ã ª
Ġb other
Ġkon kret
ter min
Ġel ite
ĠNational park
kont o
ĠBewer bungs
ĠKandid aten
Ġt ies
Ġso g
ĠMay or
IF A
D B
Ġt enden
ĠErsatz teile
Ġrelev anten
Pf alz
çļ Ħ
Ġto ss
ĠA W
ĠG le
row ing
Ġair line
ĠRegel ungen
ĠFlÃ¼cht lings
ĠEr k
ĠJed och
Ġdiss ertation
Ġcompliment ary
Ġhad n
bro chen
Ġexcess ive
it udes
ss on
Ġgew achsen
Ġess ence
Ġseem ingly
Ġ196 8
Ġforg otten
W erk
ĠFl aschen
ĠJournal isten
Ġdah inter
Ġrol led
ĠD ivers
Ġum zusetzen
Ġbron ze
u ppe
is y
Ġres pected
ĠBB Q
Ġpup ils
am ins
ĠR acing
Ġsil k
ĠAltern ativen
ĠFeder ation
Ġausger ichtet
ĠÂ ĸ
Ġpoll ution
ĠHoll and
Ġembra ce
c ow
re ach
Ġm asturb
ĠTem po
Ġdecor ations
Ġdraw s
Ġgradu ally
ĠPor sche
ĠO EM
ential s
ĠD ent
ĠN urs
Ġver an
ĠVers ionen
B au
Ġdas h
Ġpack ing
A A
Ġc ous
end lich
bor ough
zuf inden
Ġchap ters
bild et
Ġmut ual
K om
r ons
ĠP ages
Ġbe zogen
verb indung
Ġhe els
Ġsu cc
ĠVor bereit
ĠAs ien
ategor ie
ĠNahr ungs
Ġk ommer
ĠN BA
Ġman gel
Ġsc iences
ĠRes ults
ĠEd ge
Ġtravel ers
Ġgre ift
Ġabge legt
ĠBrow se
Ġrough ly
Ġweak ness
G ut
p aket
un i
ĠB att
og ram
mark e
Ġst Ã¤dt
Ġdes ert
ra c
ĠC overs
gen ossen
Ġorgan ised
ĠCo le
Ġdiagn osed
Ġsymbol s
ĠsÃ¼ ÃŁ
Ġbegeg nen
Ġre ine
ĠAn leger
be c
ĠFl asche
Ġvo ices
ĠUnterricht s
Ġcompla ints
Ġpractition ers
o op
ĠZu verlÃ¤ss
ĠVerfÃ¼g barkeit
ĠN ichts
ell ery
tw Ã¤sche
laub nis
Ġwund erv
Ġtransform ed
B oth
e b
Ġt ires
ĠA ur
ĠA merikan
Ġrequ iring
Ġreal isiert
ĠIdent itÃ¤t
ed ar
Ġth y
Ġsch lafen
Ġdev ast
Ġj et
ens us
Ġexperim ents
Ġembed ded
is d
Ġan gest
Ġbrow sing
liefer ung
Ġelder ly
s eiten
Ġer leb
og o
zep ten
am an
ac ent
Ġflo ating
ĠDar auf
K Ã¼
w ass
Ġhal ben
Ð½ Ñĭ
ĠgefÃ¤hr lich
hou ette
ethe less
nb sp
Dav id
ĠC amer
ĠK upfer
Ġne ugier
ĠZ en
Ġmach inery
Ġbreat hing
Ġtast y
Ġalgorith m
Ġar med
ĠOrgan ization
ĠPubl ikation
ĠWahr nehmung
ĠBru ce
ĠLaut sprecher
J u
Ġl uft
ĠW Ã¼rz
aut iful
ĠInst rumente
ID E
Ġherr scht
Lear n
ov olta
Ġcont acted
ĠUm frage
Ġbew Ã¤lt
Ġagre ements
figur ation
Ġschein bar
Ġl un
ĠÃ¼ber geben
ĠDes wegen
ĠEm ma
Ġsepar ated
in is
Ġg laub
ĠN ative
Ġun angen
our cing
Ġnach t
Ã¤ch eln
lÃ¤uf ig
ĠC ondition
Ġst rand
ine e
ek s
ober flÃ¤che
sk y
ĠKap it
ieb eln
Ġausgew Ã¤hlte
ĠDiskuss ionen
C amp
s ize
Ġther mal
P op
Ġre iz
Ġgro cery
ĠRes pons
Ġseit dem
Ġ; )
ĠWire less
Ġb od
ĠB anner
Ġl okal
id ges
ĠAd ams
bet rag
ĠAmer ika
ar ien
Ġc os
ĠIn haber
sel n
pro jekte
ĠAll erg
Ġdam ages
ĠJust iz
Ġtong ue
burt stag
ĠN i
Ġen roll
Ġtre as
Ġport ray
Ġinspir ieren
ĠLauf zeit
Ġdro ve
Ġlob by
Ġk Ã¶st
ĠPass wort
Ġbereit et
ĠK han
ĠR utsch
ĠAus stellungs
ĠGeschÃ¤fts bedingungen
Ġecht es
los er
Ġ8 3
Ġintegr ieren
Mark eting
ĠA ld
hes ive
ĠPrÃ¼f ungs
Ġ Ã¤ndert
ow ner
ĠL em
Ġkn it
ĠErot ische
ĠFernse her
Ġveranst altet
g ans
Ġb um
Ġth rown
Ġan halten
ne cess
ĠIsrael i
Ġangegeben en
Ġpot atoes
Le istungs
Ger ade
in ander
Ġb ell
Ġwas ch
ĠAus zeichnung
ĠpersÃ¶n liches
ĠMass iv
ĠImp lement
ĠRet ail
D isc
g ast
m orgen
ĠY og
ful ness
ane ous
ĠSk ills
Ġcelebr ity
ĠRis ik
Ġfuck ed
ĠBeh inderung
R et
Ġcon ferences
ud d
ĠMar vel
Ġdar stellt
Ġgr ip
Ġplace holder
Ġbas ket
Ġschle chte
Ġtim ing
Ġanges prochen
bas is
Ã ´
te hen
Ġalle g
IC K
Ġkil omet
r ations
wer tet
ĠAuf bewahr
Ġbeg renzt
ĠKÃ¼nd igung
US T
hyth mus
Ġzuk Ã¼nftig
aret te
Ġangeneh me
Ġsimultane ously
C OM
ĠB ielefeld
ĠD usch
fol k
ina he
OS T
ordin ator
Ġimplic ations
A lex
Ġdis abilities
leit erin
Ġcr imes
Ġster ben
os ium
od or
we ichen
ĠAn walt
Ġen ger
Ġcomp eting
ĠTit le
Ġsyn chron
ĠP U
zie llen
V ersch
r Ã©
Ġ2 20
Ġ( âĢ¦)
Ã¤r zte
Ġsol ch
Ġanges ichts
Ġf et
ĠW oll
ĠR out
Ġver teid
ĠEr sch
mark s
ĠDenn is
Ġve ctor
Ġstell ten
S outh
b rÃ¼cken
m t
or ene
ĠG ulf
ĠR oland
Ġzu recht
ĠY outube
ĠFe el
amb ots
Ġorganiz ational
ĠgrÃ¼ ne
f isch
Ġv otes
ĠD ise
ĠGem einder
Ġfund ament
Ġdopp elt
Ġs ail
Ġn ails
ĠL odge
Ġcost ume
Ġcondu cting
ĠPict ure
ĠFuss ball
Ġver ify
iz ierte
Ġ8 1
Ġhier mit
Ġfunction ing
Ġanerk annt
Ġerfahr ene
Ġv essel
Ġhin zufÃ¼gen
Ġbrand ing
Ġamb ition
Ġstro ke
ĠW iders
Ã¼r ze
ĠIntern ationale
Ġgl ory
ĠGu est
Ġmodel ing
Ġbackground s
Ġconstit ution
Ġcorn ers
ĠBeschÃ¤ft igung
ĠGree ce
ĠklÃ¤ ren
sp annung
att ung
so hle
ĠOper a
Ġanc est
C enter
Ġm un
as tet
Ġh arten
ĠT iger
ĠK id
ĠPro jekts
imm ers
ĠUm bau
ĠChr isten
sprÃ¼ chen
Bl og
ĠP H
ĠP ixel
Ġup hol
Ġro s
ĠBil anz
S H
S ter
ar if
Ġsch aff
Ġste ady
ĠBre mer
ru pp
af il
ĠGottes dienst
ĠPr ize
Ġexc el
ĠWert sch
Form at
G R
b ath
k och
Ġun likely
ill o
Ġwe ichen
ĠCh arm
Ġverein fach
ĠSem ester
b w
v ideos
Ã¤ ule
ist ischer
Ġher bs
Ġposs ession
ĠKn ie
ho fen
ID S
atin um
ĠWalk er
un ks
ĠCo oper
ĠMod ule
Ġb iz
ĠBet ter
Pl atz
komp etenz
Ġanticip ated
ĠChel sea
ĠBack ofen
emb les
o ÃŁen
v ation
Ġj ener
Ġver raten
Ġaus ged
Ġvis a
Ġspecial ize
ĠHein z
Ġsurve ys
r ungen
ĠM uch
act s
Ġrep ar
Ġrel ate
ĠAusgang spunkt
ĠwÃ¼nsch t
G el
o T
it us
ĠZ ertifiz
ib et
Ġchampions hip
Ġkontinuier lich
Ġra ff
Ġges ichert
Ġval ued
Ġeconom ics
ĠPod cast
ĠB akterien
ĠC ad
Ġcontin ually
Ġinc omp
Ġattend ance
Ġb ones
ĠI R
Ġk at
ĠKind ers
Ġaddress ing
Ġbi ology
Ġhe il
ĠKÃ¼ ste
ĠUp dates
Ġexpect ing
re chn
ur teilung
ĠL ith
ĠCar bon
ĠKommun en
ĠBlo om
Ġt iefen
ĠT ell
ĠR uh
Ġwar me
ish a
Ġcons ole
Ġfro zen
Ġt in
Ġnov els
ĠBatter ie
ĠmaÃŁ gesch
f ungen
Ġle an
mann s
ĠDat ens
ĠIndones ia
Ġhass le
r und
Å ¡
ĠC ob
Be ing
b il
Ġin hab
pt ic
Ã¤nd igkeit
Ġrel atives
ĠTex ten
ĠCry stal
ĠInse kten
g asse
m ung
Ġf ract
Ġp ix
ĠW oman
Ġdem nach
ĠAl aska
bu ilt
Ġassign ments
Ġconfirm ation
p ause
ir men
ĠSch ein
anz ig
nehm enden
C ap
Ġan gesch
ist or
Ġhigh way
ĠWh it
ĠBo sch
Ġcoin s
ĠN A
Ġbook ed
ĠM I
Ġch ick
hl on
Ġsusp ension
A ct
j ugend
Ã¼ pf
Ġein ig
ĠV ene
Ġhe ir
Ġ196 9
ĠWander ung
z ten
Ġviel seitig
Ġversch affen
Ġmar g
best immungen
ĠAbend essen
ĠWiderruf s
ĠP E
Ġfla w
oz i
S ty
ĠB rie
ĠP itts
ge halt
Ġmit ge
eten te
Ġinspir ational
Spe zial
uert o
s ur
ĠG O
ĠJ av
Ġem bar
ĠGl en
Ġgain ing
Ġsow ieso
werk statt
bet riebe
Ġwood s
stÃ¼ck en
Te xt
Ġautom obile
ĠKamp agne
Ġb il
Ġcomp elling
ĠGeb Ã¼hr
b unden
ĠSemin are
Ġroof ing
ĠverstÃ¤nd lich
f Ã¤llt
ĠV ac
ĠCh am
Ġ197 7
Ġattempt ing
k ost
t isch
ĠR y
ĠR idge
Ġgra d
Ġwichtig es
Ge gen
D igital
ĠG arn
hol fen
Wel che
ar ound
Ġsh ield
ĠLie bling
ĠIS BN
B ank
ĠS ov
Ġl enses
ĠAss ociate
Ġsepar ately
Ġmusikal ischen
B ro
i ode
ur l
Ġbet reibt
uff y
f y
ĠV inyl
ib les
Ġsupp lements
ĠEx hib
Her r
ĠSch uss
ĠGesch w
Ġsl im
ĠVal ue
Ġdamal igen
un ts
ĠSt ationen
be leuchtung
ĠtÃ¤ gliche
Ġpros per
Ġtheoret ical
Ġattemp ted
ush i
Ġimm ers
Ð¾Ð ´
kont akt
Ã¤cht nis
ĠLouis iana
ĠS ucher
ĠR itter
Ġer lauben
ape uten
ĠRef lex
ĠDarm stadt
K K
O X
ig el
ill ance
ĠBÃ¼ chern
ĠBlo od
ain ing
Ġident ical
Ġillustr ations
Ġerled igen
Ġware house
tende es
g yp
ver l
Ġum geben
ke eping
al at
af rika
Ġpar agraph
Ġ17 0
ĠVerein barung
bre aking
S ol
ĠKonzentr ation
Ġb ayer
Ġsch Ã¤d
Ġtra ins
old ing
ĠNe um
Ġwed dings
Ġconj unction
Ġb ikes
Ġl Ã¤nd
Ġmodern es
Ġlog ic
mÃ¶ gliche
Ġcool er
Ġvorbe halten
Ġisol ated
her ren
ĠLux ury
S erver
ud el
ĠBe frag
Ġpo ems
irat et
ĠEsc ort
ĠBoch um
ed ge
Ġl iest
Ġr ides
Ġge fordert
iz ers
Ġumfang reiches
ĠRicht igkeit
strateg ie
at able
Ġb achelor
me id
Ġdu o
Ġwater proof
ĠSur vey
D ollar
Ġbe auf
ĠVor schlÃ¤ge
ĠSte ven
OR D
ĠMc K
Stud ents
ĠPl ate
Ph il
U D
Ġe co
be er
IS S
ĠBlog ger
fert igt
Ġsurround ings
Ġjud gment
Ġbrit ischen
ĠBundest ag
L iebe
it uationen
ĠP ension
Ġvis ibility
Ġwr est
Ġpick up
Ġfig ured
ĠNY C
Ġkomfort abel
Ġdepart ure
ĠT Ã¤n
ĠC old
Ġan lÃ¤sslich
ĠKont rast
AN T
vier tel
ĠDirect ory
on enten
Ġn ackte
Ġl ining
sp rechen
ĠStre am
Ġaccept able
ĠAngehÃ¶r igen
in form
ĠC row
Ġsch ick
be ge
Ġaut umn
dition al
Ġpen alty
v d
ĠF o
ĠPl atform
ĠAbst immung
ĠT M
ĠG utes
Ġwir ing
Ġel astic
ĠS i
Ġret rie
ĠGer hard
Ġseit ens
US A
Ġobtain ing
ĠEns emble
H y
O k
d rop
or p
ĠD inner
ĠP atch
uf el
de ko
Ġco ating
Ġcoll ar
ĠTele kom
ĠSold aten
ĠBapt ist
Ġg n
ĠE ve
Ġz Ã¼
ĠN othing
ĠGe webe
Ġemp fehl
Ġround s
ĠK el
ĠPro gress
Ġtyp ische
ĠCom pl
Ġstruct ured
Ġregard ed
Y S
Ġin clusive
Ġc ottage
ĠKenn edy
c ount
ĠS ender
ĠK assen
ĠL anc
Ġprom ising
ĠFreund schaft
Ġkulture llen
Ġw eld
re gend
ĠS ustain
Ġc ognitive
ĠMan hattan
amt es
ĠAkt ual
ĠMel od
C L
ĠB om
um me
Ġver knÃ¼p
ĠBe vor
ĠHor st
w ahr
Ġgesch m
Ġfil ing
Ġprote ctive
ĠGegen stÃ¤nde
ĠJack e
Produ kt
Ġbeob achtet
Ġruss ischen
v ag
st ig
ĠB enn
ad bach
se arch
ĠEr fÃ¼llung
Ġbes eit
Ġback pack
ĠAll gemeine
Ġillustr ation
olven z
M ult
M edia
sch we
Ġr uling
Ġentwick elten
ĠKomp lex
Ġt el
Ġw ahren
leben s
ĠN est
Ġ197 3
Ġ197 6
ĠPil ot
Ġjournal ist
ĠC zech
lie be
ĠAb ends
Ġpers pectives
Le ist
in as
Ġg onna
Ġnach zu
) ?
p ubl
ĠH os
iz ard
ĠUn ique
gef ert
G old
ro e
ĠC er
ĠSt ufen
ĠAus stellungen
ric a
Ġinstit ute
Ġamerikan ische
ĠTrage komfort
A tt
Ġf oss
Ġinter pre
Ġsupport ive
spe cific
Ġappar ent
Ġd ive
ĠM ent
ĠG P
Ġde press
Ġle er
ian z
Ã¤r er
Ġnut s
ĠMitglie ds
ĠInternational en
Ġpropos als
Soll ten
ch ant
Ġm ira
Ġtransfer red
ĠTe a
unst ig
C ustom
ĠV iv
bew usst
ĠN AT
ĠBl itz
Som etimes
a ired
Ġf ed
Ġunter halb
amp a
bew usstsein
ĠHung er
Loc ated
ab out
ĠAn schrift
cc i
ĠY OU
pro fil
Ġintegr ierte
Ġillustr ated
W asser
Ġsp ell
Ġlaunch ing
Ġre vers
sch ild
Ġzu kunfts
fÃ¼ hlen
Ġread s
Ġpay day
ĠKultur en
ĠInvest itionen
ĠArchitect ure
g ler
re uer
am keit
Ġbas teln
bor o
Ġang ry
ĠCR M
Ġberecht igt
it arian
is abeth
Ġan fangen
ver treten
Ġne in
ĠEin fl
ĠPol and
ĠFire fox
Ġsorg te
prech ung
p ad
is ierungs
Ġcon sec
az it
Ġinst ances
Ġestabl ishing
vis ions
ĠBenutz ung
Ġries igen
ĠDSG VO
K ey
ul er
Ġgr ib
ĠDire ktor
Ð° ÑĤ
Ġangeb lich
Ġfurnish ings
F I
g ieb
ie val
ra k
ĠV ital
sh aus
produ kten
ĠBew usstsein
Ġhand ed
Ġupd ating
Ġneues te
J ack
Ã¤ hre
Ġwer d
Ġsal on
Ã¤ ge
Ġ19 00
ĠJu den
Ġstrength s
Z usammen
Ġw ides
at ischen
Ġb onds
ber ge
if ahr
ock et
Ġbeg inn
so ftware
Ġabs orb
Ġdomin ant
Ġexecut ives
Ġs q
Ġbes etzt
Ġanim ated
ĠlÃ¤nger en
at ische
us el
ĠUn like
ĠEink lang
Ġexklus iven
ĠE igentlich
ĠBundes republik
ĠFrank lin
Ġan stren
ĠN ob
ĠSt age
ok o
Ã¼tz ten
ĠB irmingham
ĠG round
Ġab stra
ĠAn lÃ¤
gesch Ã¤
Ã¤ss igen
C ode
on ferenz
Ġw Ã¼nsche
Ġb unt
ĠW ide
ĠL angen
Ġhighl ighted
ĠKonzept ion
lÃ¤nd ische
B ilder
ie tet
Ġmehr mals
Ġspeed s
Ġasp ir
Ġsynt hetic
w he
Ġein lad
ĠPl atte
itz ung
amm ed
Ġgemein nÃ¼tz
Ġrefresh ing
Ã£ o
est y
ĠJ et
Ġen velop
ĠAl pha
Ġaut onom
ĠInter est
Ġzusammen gef
Ġachie vements
ig ue
Ġsens ors
Aut hor
Ġpuzz le
ĠA uÃŁer
Ã¤ sch
Ġtra ur
ĠMan uel
Ġconsult ants
Ġengag iert
ĠerÃ¶ff nen
7 00
ĠL ampen
Ġim aging
ĠSt u
ĠSchul jahr
ĠBege gn
Ġplug in
iterrane an
x it
ĠCh ip
Ġhar sh
Ġpill ow
Ġg Ã¼ltig
ĠF ing
ĠK os
Ġj unk
Ġval ve
Ġcreat ures
Ġausge legt
Ġattra ction
ĠFact ory
Ġâľ ĵ
Û Į
ĠS alt
if ferenz
Ġunter halten
Ġbest and
ĠOr chester
Ġmount ing
ĠStat ement
ĠRes olution
ĠDesign ed
ĠPlan eten
Ġaffe cting
ĠUl rich
Ġclim b
ĠPoten z
Ġprob ieren
Ġpull ing
Stand ard
Ġemp ir
ĠfranzÃ¶s ische
ĠC ub
ĠJo achim
Ġs ib
Ġcont roller
ĠNot wend
Ġrecommend ation
Ñģ Ðº
C ity
Ġe uer
ĠM az
Ġer arbeiten
Ġsignific ance
iction ary
Ġeth ical
wert es
Ġprem ises
aktiv itÃ¤ten
material ien
Con ne
Ġd os
be teil
Ġtra iner
pro be
ĠKer zen
O UR
Ġ197 4
ĠVort rÃ¤ge
ĠprÃ¤z ise
R und
S Ã¼d
Ġd icken
Ġl id
ĠPhot oshop
Ġ Ã¤rzt
ne id
Ġste uern
Ġsele ctions
Ġarr ives
z heimer
ps on
. Â«
Ã¤ uren
ĠN okia
Ġar c
ĠVerb reitung
Ġtravel s
Ġcater ing
re gung
ĠS ets
Ġg ains
Ġend ors
AS H
ĠRec ord
ĠjÃ¼ng sten
[...]
